unsigned char optimized_imu_model_tflite[] = {
  0x20, 0x00, 0x00, 0x00, 0x54, 0x46, 0x4c, 0x33, 0x00, 0x00, 0x00, 0x00,
  0x14, 0x00, 0x20, 0x00, 0x1c, 0x00, 0x18, 0x00, 0x14, 0x00, 0x10, 0x00,
  0x0c, 0x00, 0x00, 0x00, 0x08, 0x00, 0x04, 0x00, 0x14, 0x00, 0x00, 0x00,
  0x1c, 0x00, 0x00, 0x00, 0x98, 0x00, 0x00, 0x00, 0xf0, 0x00, 0x00, 0x00,
  0xe8, 0x9a, 0x00, 0x00, 0xf8, 0x9a, 0x00, 0x00, 0x40, 0xa6, 0x00, 0x00,
  0x03, 0x00, 0x00, 0x00, 0x01, 0x00, 0x00, 0x00, 0x10, 0x00, 0x00, 0x00,
  0x00, 0x00, 0x0a, 0x00, 0x10, 0x00, 0x0c, 0x00, 0x08, 0x00, 0x04, 0x00,
  0x0a, 0x00, 0x00, 0x00, 0x0c, 0x00, 0x00, 0x00, 0x1c, 0x00, 0x00, 0x00,
  0x3c, 0x00, 0x00, 0x00, 0x0f, 0x00, 0x00, 0x00, 0x73, 0x65, 0x72, 0x76,
  0x69, 0x6e, 0x67, 0x5f, 0x64, 0x65, 0x66, 0x61, 0x75, 0x6c, 0x74, 0x00,
  0x01, 0x00, 0x00, 0x00, 0x04, 0x00, 0x00, 0x00, 0x90, 0xff, 0xff, 0xff,
  0x0a, 0x00, 0x00, 0x00, 0x04, 0x00, 0x00, 0x00, 0x08, 0x00, 0x00, 0x00,
  0x6f, 0x75, 0x74, 0x70, 0x75, 0x74, 0x5f, 0x30, 0x00, 0x00, 0x00, 0x00,
  0x01, 0x00, 0x00, 0x00, 0x04, 0x00, 0x00, 0x00, 0xfe, 0x64, 0xff, 0xff,
  0x04, 0x00, 0x00, 0x00, 0x0d, 0x00, 0x00, 0x00, 0x69, 0x6e, 0x70, 0x75,
  0x74, 0x5f, 0x6c, 0x61, 0x79, 0x65, 0x72, 0x5f, 0x31, 0x00, 0x00, 0x00,
  0x02, 0x00, 0x00, 0x00, 0x34, 0x00, 0x00, 0x00, 0x04, 0x00, 0x00, 0x00,
  0xdc, 0xff, 0xff, 0xff, 0x0d, 0x00, 0x00, 0x00, 0x04, 0x00, 0x00, 0x00,
  0x13, 0x00, 0x00, 0x00, 0x43, 0x4f, 0x4e, 0x56, 0x45, 0x52, 0x53, 0x49,
  0x4f, 0x4e, 0x5f, 0x4d, 0x45, 0x54, 0x41, 0x44, 0x41, 0x54, 0x41, 0x00,
  0x08, 0x00, 0x0c, 0x00, 0x08, 0x00, 0x04, 0x00, 0x08, 0x00, 0x00, 0x00,
  0x0c, 0x00, 0x00, 0x00, 0x04, 0x00, 0x00, 0x00, 0x13, 0x00, 0x00, 0x00,
  0x6d, 0x69, 0x6e, 0x5f, 0x72, 0x75, 0x6e, 0x74, 0x69, 0x6d, 0x65, 0x5f,
  0x76, 0x65, 0x72, 0x73, 0x69, 0x6f, 0x6e, 0x00, 0x0e, 0x00, 0x00, 0x00,
  0xf4, 0x99, 0x00, 0x00, 0xec, 0x99, 0x00, 0x00, 0xdc, 0x98, 0x00, 0x00,
  0x4c, 0x98, 0x00, 0x00, 0x3c, 0x95, 0x00, 0x00, 0x14, 0x95, 0x00, 0x00,
  0x04, 0x8d, 0x00, 0x00, 0xb4, 0x00, 0x00, 0x00, 0xac, 0x00, 0x00, 0x00,
  0xa4, 0x00, 0x00, 0x00, 0x9c, 0x00, 0x00, 0x00, 0x94, 0x00, 0x00, 0x00,
  0x74, 0x00, 0x00, 0x00, 0x04, 0x00, 0x00, 0x00, 0xb2, 0x65, 0xff, 0xff,
  0x04, 0x00, 0x00, 0x00, 0x60, 0x00, 0x00, 0x00, 0x0c, 0x00, 0x00, 0x00,
  0x08, 0x00, 0x0e, 0x00, 0x08, 0x00, 0x04, 0x00, 0x08, 0x00, 0x00, 0x00,
  0x10, 0x00, 0x00, 0x00, 0x28, 0x00, 0x00, 0x00, 0x00, 0x00, 0x06, 0x00,
  0x08, 0x00, 0x04, 0x00, 0x06, 0x00, 0x00, 0x00, 0x04, 0x00, 0x00, 0x00,
  0x01, 0x00, 0x00, 0x00, 0xea, 0x03, 0x00, 0x00, 0x0c, 0x00, 0x18, 0x00,
  0x14, 0x00, 0x10, 0x00, 0x0c, 0x00, 0x04, 0x00, 0x0c, 0x00, 0x00, 0x00,
  0x45, 0xdc, 0x93, 0x07, 0xeb, 0x50, 0x65, 0xff, 0x02, 0x00, 0x00, 0x00,
  0x02, 0x00, 0x00, 0x00, 0x04, 0x00, 0x00, 0x00, 0x06, 0x00, 0x00, 0x00,
  0x32, 0x2e, 0x31, 0x39, 0x2e, 0x30, 0x00, 0x00, 0x1e, 0x66, 0xff, 0xff,
  0x04, 0x00, 0x00, 0x00, 0x10, 0x00, 0x00, 0x00, 0x32, 0x2e, 0x31, 0x37,
  0x2e, 0x30, 0x00, 0x00, 0x00, 0x00, 0x00, 0x00, 0x00, 0x00, 0x00, 0x00,
  0xa0, 0x5b, 0xff, 0xff, 0xa4, 0x5b, 0xff, 0xff, 0xa8, 0x5b, 0xff, 0xff,
  0xac, 0x5b, 0xff, 0xff, 0x4a, 0x66, 0xff, 0xff, 0x04, 0x00, 0x00, 0x00,
  0x40, 0x8c, 0x00, 0x00, 0x00, 0x00, 0xc0, 0x00, 0x00, 0xa3, 0x00, 0xb0,
  0x00, 0x45, 0x00, 0x00, 0x00, 0x00, 0x00, 0x00, 0x00, 0x00, 0x00, 0x00,
  0x54, 0x55, 0x00, 0x00, 0x61, 0x00, 0x50, 0xa4, 0xbe, 0x47, 0x98, 0x00,
  0x00, 0xaf, 0x00, 0x00, 0x00, 0x00, 0x57, 0x00, 0x00, 0x65, 0x00, 0x35,
  0x5f, 0x00, 0x00, 0x00, 0x00, 0x00, 0x00, 0x00, 0xa7, 0x00, 0x4f, 0x40,
  0x00, 0x00, 0x57, 0xb6, 0x00, 0x5f, 0xb3, 0x00, 0x00, 0x51, 0x52, 0x00,
  0x00, 0x4e, 0xa7, 0x65, 0x00, 0xc0, 0xa2, 0xaf, 0x00, 0x00, 0x85, 0x98,
  0x9f, 0x9e, 0x00, 0x3f, 0xae, 0x4f, 0x00, 0xc8, 0x00, 0x00, 0x68, 0x5b,
  0x00, 0x00, 0x5b, 0xb8, 0x42, 0xcb, 0x62, 0x00, 0x47, 0xa8, 0xc6, 0xc2,
  0x00, 0x50, 0x00, 0xa5, 0x85, 0x4c, 0x00, 0xb4, 0x00, 0x00, 0x00, 0x54,
  0xa0, 0xb8, 0x00, 0x00, 0x66, 0x00, 0xcb, 0x00, 0x00, 0x41, 0x61, 0x9e,
  0x00, 0x00, 0x00, 0x00, 0x00, 0x00, 0x38, 0x00, 0x00, 0xc6, 0x00, 0x00,
  0xbd, 0x3c, 0x67, 0x48, 0x00, 0x00, 0x00, 0xb7, 0xae, 0x00, 0xcd, 0x00,
  0x00, 0x00, 0xc2, 0x00, 0x00, 0x48, 0xc7, 0x00, 0x3c, 0x00, 0x00, 0x9b,
  0x4d, 0xb0, 0x00, 0x52, 0x00, 0x00, 0x54, 0x3d, 0x00, 0x00, 0x00, 0x00,
  0x57, 0x00, 0x00, 0x00, 0x00, 0x00, 0xb0, 0x47, 0xc3, 0x37, 0xa6, 0x00,
  0xb0, 0x00, 0xb7, 0x9e, 0x00, 0xc3, 0x00, 0xcc, 0xc7, 0x00, 0x59, 0x00,
  0x9c, 0xad, 0xa2, 0xa8, 0x3d, 0x9c, 0x00, 0x00, 0x00, 0x38, 0x59, 0x00,
  0x00, 0x36, 0x00, 0x00, 0x9e, 0xb8, 0x9f, 0x58, 0xab, 0xac, 0x00, 0x42,
  0x00, 0x40, 0x00, 0x00, 0x00, 0xa6, 0x66, 0x00, 0x60, 0x00, 0x00, 0x00,
  0x00, 0xb2, 0xcc, 0x00, 0x00, 0x56, 0x00, 0x3a, 0x00, 0xc4, 0x9b, 0xb3,
  0x00, 0x00, 0x00, 0x6c, 0x43, 0x5b, 0x00, 0x5a, 0xb7, 0xcd, 0x00, 0x9c,
  0x32, 0xc4, 0x00, 0xb2, 0xba, 0x5e, 0xac, 0x00, 0x00, 0x00, 0x00, 0x3b,
  0x36, 0x34, 0x00, 0x00, 0x35, 0x4b, 0x00, 0x54, 0x00, 0x00, 0x00, 0x00,
  0x54, 0x00, 0x00, 0x00, 0x00, 0x3e, 0x50, 0x5d, 0xb1, 0xbd, 0x00, 0x00,
  0xcc, 0x6f, 0x00, 0x68, 0x00, 0x70, 0x00, 0xb3, 0xc9, 0xad, 0x3d, 0x00,
  0x00, 0x56, 0x00, 0x00, 0x00, 0x00, 0x00, 0x6c, 0x00, 0x00, 0x00, 0x00,
  0x38, 0x46, 0x67, 0x00, 0x3b, 0xc2, 0x3f, 0x00, 0x43, 0x4a, 0x00, 0xa4,
  0x55, 0x4f, 0x00, 0x3c, 0x6f, 0x00, 0xb6, 0xc2, 0x54, 0x00, 0x48, 0x00,
  0x00, 0xc8, 0x00, 0x00, 0xb1, 0x00, 0x00, 0x00, 0x54, 0x00, 0xb6, 0x00,
  0x3b, 0xb8, 0x00, 0x00, 0x00, 0x00, 0x57, 0x00, 0x00, 0x00, 0x3c, 0x34,
  0x00, 0x00, 0x00, 0x00, 0x00, 0x00, 0xb3, 0x9b, 0x00, 0x00, 0x60, 0x70,
  0x00, 0x00, 0x00, 0x5e, 0x72, 0x00, 0x34, 0x00, 0x00, 0x54, 0x00, 0x00,
  0x57, 0x5c, 0xc9, 0x00, 0xca, 0x00, 0x6e, 0x50, 0xaa, 0x00, 0x00, 0x00,
  0x00, 0x00, 0x5a, 0xcb, 0x00, 0x7f, 0x58, 0x00, 0x00, 0x00, 0x49, 0xc6,
  0x46, 0x00, 0x3c, 0x9e, 0xbe, 0x00, 0x00, 0x37, 0x00, 0x4e, 0xbb, 0xb3,
  0xcc, 0x00, 0xc9, 0x00, 0x64, 0xaf, 0x66, 0x00, 0xb4, 0x00, 0x34, 0x3d,
  0x00, 0xc0, 0x00, 0x00, 0x00, 0x00, 0xa5, 0x00, 0x00, 0x00, 0xc4, 0x00,
  0x00, 0x44, 0x52, 0x64, 0x00, 0x00, 0x00, 0x59, 0x00, 0x00, 0x45, 0x00,
  0x41, 0x00, 0xb5, 0x56, 0x6d, 0x00, 0x39, 0x00, 0x00, 0x00, 0xbc, 0x37,
  0xb2, 0x00, 0x35, 0x00, 0x00, 0x44, 0xa9, 0x00, 0xaf, 0xb9, 0x38, 0x00,
  0x00, 0x00, 0xc5, 0x58, 0x60, 0x00, 0x6c, 0x60, 0x39, 0x38, 0xb6, 0x00,
  0x00, 0xb7, 0x00, 0x46, 0x3c, 0xa8, 0x00, 0xc5, 0x00, 0x00, 0x00, 0xc0,
  0xcc, 0x67, 0x38, 0x93, 0x00, 0x00, 0x5c, 0x00, 0x00, 0x38, 0x00, 0xae,
  0x77, 0x44, 0x00, 0x34, 0x00, 0xb5, 0x00, 0x00, 0x00, 0xa7, 0x50, 0xb1,
  0x00, 0x3c, 0x50, 0x3a, 0x00, 0x36, 0x00, 0x00, 0xae, 0x00, 0x5b, 0x36,
  0x00, 0x00, 0x00, 0x00, 0xc3, 0x00, 0xc9, 0x00, 0x00, 0x9d, 0x5b, 0x00,
  0x00, 0x00, 0x00, 0x41, 0x00, 0x00, 0x3c, 0xb7, 0x00, 0x00, 0x00, 0xcb,
  0x2e, 0x27, 0xd0, 0x29, 0xc8, 0x00, 0x00, 0x6c, 0x00, 0x00, 0x00, 0x59,
  0x00, 0xa0, 0x00, 0x00, 0x30, 0x29, 0x00, 0x46, 0x00, 0x00, 0x00, 0x34,
  0x00, 0x2f, 0x26, 0x2a, 0x00, 0xbc, 0x00, 0xba, 0x76, 0x00, 0x00, 0x4d,
  0x00, 0x00, 0x00, 0x38, 0x00, 0xce, 0xb3, 0xd8, 0x00, 0xa1, 0x3d, 0x00,
  0x34, 0x62, 0x00, 0x00, 0xda, 0x4c, 0xc7, 0xd7, 0xb1, 0x00, 0x00, 0x00,
  0xc1, 0x00, 0xc3, 0x00, 0x28, 0x44, 0x00, 0x47, 0x00, 0x00, 0x00, 0x58,
  0x00, 0x00, 0x28, 0x00, 0x00, 0xc0, 0xa0, 0x28, 0xb4, 0xd7, 0x00, 0x00,
  0x00, 0x48, 0x33, 0xcf, 0x00, 0x00, 0xcb, 0xcb, 0x00, 0xbd, 0x00, 0x30,
  0x40, 0xcb, 0xcf, 0x00, 0x00, 0x00, 0xc6, 0xc2, 0x41, 0x37, 0x00, 0xaf,
  0x00, 0xc5, 0x2a, 0xd6, 0x00, 0x31, 0x00, 0x00, 0x2d, 0xd7, 0x00, 0x00,
  0xd6, 0x41, 0x00, 0x3c, 0xc6, 0x00, 0x00, 0x00, 0x00, 0x00, 0x61, 0x48,
  0x00, 0x00, 0xd6, 0x00, 0x00, 0x40, 0x00, 0x3e, 0x32, 0x00, 0x00, 0x31,
  0x26, 0xd9, 0x00, 0x00, 0x00, 0x00, 0xd8, 0x32, 0x00, 0x00, 0x44, 0x3c,
  0x00, 0x00, 0x00, 0x35, 0x00, 0x00, 0x4c, 0xa9, 0x36, 0x00, 0x00, 0x00,
  0x4a, 0x00, 0x00, 0x00, 0x00, 0xc9, 0xba, 0x81, 0xa2, 0x00, 0x45, 0x00,
  0x5c, 0x6e, 0xc6, 0x2b, 0xbf, 0x00, 0x00, 0xc7, 0x00, 0x00, 0x28, 0x00,
  0x35, 0x00, 0x45, 0x00, 0x28, 0x4b, 0x3e, 0xd4, 0x00, 0xcb, 0x00, 0x00,
  0x3e, 0x00, 0xcc, 0x2a, 0x00, 0x62, 0xca, 0xcc, 0xc9, 0xba, 0x52, 0x39,
  0x00, 0x00, 0x00, 0xd7, 0x00, 0x30, 0x00, 0x00, 0x00, 0x00, 0x00, 0x00,
  0x35, 0x46, 0x00, 0x5b, 0x00, 0xbb, 0x00, 0x00, 0x00, 0x00, 0x00, 0x36,
  0x2a, 0xd8, 0x00, 0x00, 0x00, 0x00, 0x44, 0x00, 0x00, 0x00, 0x32, 0xc8,
  0x00, 0x38, 0x00, 0xbe, 0x00, 0x00, 0x00, 0x41, 0x00, 0x3e, 0x00, 0x00,
  0x39, 0x36, 0x00, 0x33, 0x00, 0x00, 0xc7, 0x00, 0x00, 0xc0, 0x00, 0x44,
  0x00, 0x00, 0x00, 0x27, 0xd5, 0x5b, 0x00, 0x32, 0xcf, 0xc5, 0x00, 0x4e,
  0x5d, 0x00, 0x00, 0x33, 0x00, 0x00, 0x00, 0x00, 0xd0, 0xc8, 0x41, 0x00,
  0x00, 0x00, 0xd1, 0x00, 0x00, 0x70, 0xd2, 0xc7, 0x52, 0x00, 0xc9, 0xca,
  0xae, 0x00, 0x00, 0x00, 0xc1, 0x56, 0x47, 0x5d, 0x35, 0xc9, 0x00, 0x32,
  0x00, 0x49, 0x5c, 0x42, 0x00, 0x00, 0x67, 0x00, 0x00, 0x00, 0xd4, 0x00,
  0x00, 0x2c, 0x4c, 0x00, 0x26, 0x40, 0x34, 0x27, 0x00, 0xd9, 0xd0, 0x00,
  0x00, 0x54, 0x46, 0x00, 0x3c, 0x00, 0x00, 0x38, 0xca, 0x00, 0x00, 0x00,
  0x00, 0x3e, 0x00, 0x00, 0x00, 0x00, 0xd2, 0x00, 0x00, 0x00, 0x00, 0x6b,
  0x00, 0x41, 0x4e, 0x00, 0xd9, 0xc6, 0x00, 0x00, 0x00, 0xd3, 0x00, 0x3c,
  0x00, 0x3e, 0x00, 0x5c, 0x00, 0xcf, 0x00, 0x2d, 0xd7, 0x00, 0x00, 0xd4,
  0x00, 0x00, 0x00, 0x00, 0x00, 0x00, 0xbb, 0x00, 0xd9, 0xce, 0xce, 0xc8,
  0xba, 0xbf, 0x00, 0x00, 0x00, 0xbc, 0x2c, 0xb8, 0x00, 0x36, 0x00, 0x3f,
  0x00, 0x00, 0xd6, 0x5a, 0x00, 0x00, 0x47, 0x00, 0x00, 0x40, 0x00, 0x00,
  0x41, 0x00, 0x00, 0x00, 0xd2, 0x00, 0x00, 0x00, 0x00, 0x41, 0x00, 0x00,
  0x3b, 0xd7, 0x35, 0x00, 0x47, 0x00, 0x00, 0x30, 0x6a, 0x00, 0x00, 0x00,
  0x40, 0x00, 0x00, 0x77, 0xd0, 0xd2, 0x26, 0x52, 0x50, 0x00, 0xcc, 0x00,
  0x00, 0x36, 0x4a, 0x00, 0x00, 0xad, 0x00, 0x00, 0x00, 0x55, 0x00, 0x00,
  0x00, 0x00, 0x00, 0x47, 0x41, 0x6b, 0x00, 0xd0, 0x5c, 0x00, 0x00, 0xd8,
  0x00, 0xb7, 0x00, 0x00, 0x2b, 0x59, 0x00, 0x00, 0x48, 0x00, 0x00, 0x5e,
  0x00, 0xbb, 0xd0, 0x00, 0x00, 0x32, 0x00, 0x00, 0xc0, 0x00, 0x00, 0x00,
  0xad, 0x00, 0x00, 0xd4, 0x00, 0x00, 0x00, 0x63, 0x35, 0x00, 0x4a, 0xd6,
  0x35, 0x4e, 0x4b, 0xd3, 0x00, 0x00, 0xd3, 0xd6, 0x00, 0x00, 0x00, 0x00,
  0x00, 0x00, 0x00, 0xc0, 0x00, 0x00, 0x00, 0x33, 0x2d, 0x00, 0x00, 0x00,
  0x2d, 0x00, 0x00, 0xd0, 0x00, 0x00, 0x00, 0x51, 0xc8, 0x34, 0xdc, 0x26,
  0x34, 0x33, 0xd3, 0xad, 0x00, 0x00, 0xaf, 0x2a, 0x25, 0x2c, 0x34, 0x43,
  0x00, 0xcd, 0x41, 0x00, 0xd1, 0xbe, 0x28, 0xd6, 0x3d, 0x00, 0xb4, 0x00,
  0x35, 0x00, 0x00, 0x3b, 0xc8, 0x00, 0xab, 0x00, 0x00, 0xb0, 0x00, 0xb9,
  0x41, 0x00, 0xb3, 0x49, 0x00, 0xb6, 0xcb, 0xcc, 0x39, 0xcb, 0x00, 0xd6,
  0xc8, 0xa4, 0x00, 0xc7, 0x00, 0xd3, 0xd0, 0x00, 0xae, 0x00, 0x00, 0x00,
  0x00, 0x00, 0x00, 0x00, 0x00, 0x00, 0xcc, 0xcf, 0xb9, 0x35, 0x4a, 0x2a,
  0x00, 0x49, 0x5e, 0x00, 0x3e, 0x3b, 0x7c, 0xd3, 0xd5, 0x00, 0x00, 0x00,
  0x00, 0x00, 0x00, 0x00, 0x00, 0x00, 0x50, 0xda, 0x00, 0x00, 0x95, 0x30,
  0x00, 0x00, 0x00, 0xcf, 0x00, 0x3a, 0xa6, 0x54, 0x7f, 0xc0, 0x00, 0x00,
  0x00, 0x3d, 0xd2, 0x00, 0x2b, 0x4d, 0xd6, 0x00, 0xcf, 0x00, 0x00, 0x00,
  0xad, 0x00, 0x00, 0x00, 0xbc, 0xc1, 0x32, 0xd2, 0x37, 0xc8, 0x00, 0x00,
  0x00, 0x00, 0x00, 0x00, 0x00, 0x00, 0x7d, 0x00, 0x44, 0x00, 0x6a, 0x00,
  0x4b, 0xcc, 0x00, 0x3d, 0x00, 0x00, 0xce, 0x00, 0x00, 0xd7, 0x42, 0x00,
  0x00, 0x00, 0x44, 0x00, 0x42, 0x00, 0xb7, 0x00, 0x00, 0x00, 0x00, 0x32,
  0x3d, 0x00, 0x00, 0x00, 0xaf, 0x3f, 0x00, 0x41, 0x00, 0x00, 0xcd, 0x00,
  0x00, 0x00, 0x00, 0x75, 0x00, 0x27, 0x00, 0x33, 0xc5, 0x00, 0x00, 0x00,
  0xdb, 0x00, 0x00, 0x38, 0xdc, 0x27, 0x00, 0x00, 0x2d, 0xc9, 0x00, 0x00,
  0x00, 0x00, 0x00, 0x00, 0x23, 0x00, 0x00, 0x00, 0xd5, 0x00, 0x00, 0x00,
  0x00, 0x2a, 0xc9, 0x34, 0x3a, 0xdc, 0x00, 0xb5, 0x00, 0x2c, 0x00, 0xd5,
  0x40, 0x00, 0xd7, 0x2f, 0x2c, 0x00, 0x3e, 0x00, 0xc0, 0xd0, 0x00, 0x46,
  0x00, 0x2b, 0xb4, 0x24, 0x34, 0xc2, 0x29, 0x00, 0x24, 0x00, 0x00, 0x00,
  0x55, 0x00, 0x00, 0x00, 0x00, 0x00, 0x45, 0x00, 0xcc, 0xa5, 0x00, 0x00,
  0xc3, 0xc0, 0x41, 0x00, 0x00, 0x00, 0x33, 0x48, 0x2c, 0x33, 0x00, 0x00,
  0xac, 0xce, 0x00, 0x00, 0x00, 0x6d, 0x00, 0xd8, 0x00, 0xa5, 0xcc, 0xce,
  0x2a, 0x9c, 0xc0, 0x00, 0x00, 0x00, 0x00, 0xc7, 0x00, 0x00, 0x00, 0x00,
  0xaa, 0xb6, 0xd5, 0x27, 0x00, 0xc7, 0x48, 0x00, 0xb3, 0x00, 0x00, 0x00,
  0x25, 0xb0, 0x00, 0x35, 0xd6, 0xc4, 0x00, 0x00, 0x35, 0x00, 0xc3, 0x00,
  0x00, 0x00, 0x00, 0x00, 0x00, 0x00, 0xd8, 0x58, 0x58, 0xd5, 0x23, 0x00,
  0x00, 0x55, 0x4f, 0x00, 0x00, 0x33, 0x00, 0xb8, 0x00, 0x00, 0x00, 0x00,
  0x00, 0x32, 0x00, 0x00, 0x36, 0x00, 0x00, 0x00, 0x00, 0x00, 0x00, 0x00,
  0x2e, 0x00, 0x00, 0x29, 0x00, 0x00, 0x00, 0x00, 0xc8, 0xd4, 0x00, 0xc4,
  0xc0, 0x00, 0x00, 0xc1, 0xcf, 0x00, 0x00, 0x00, 0x25, 0x00, 0x00, 0x00,
  0x25, 0xd0, 0x40, 0x00, 0xc4, 0x3f, 0x45, 0x00, 0x00, 0x47, 0x00, 0x00,
  0xc5, 0x00, 0x45, 0x00, 0x00, 0x00, 0x00, 0xd7, 0xdd, 0x29, 0xcd, 0x00,
  0x24, 0x00, 0x00, 0x00, 0x3d, 0x2d, 0xb9, 0x00, 0x4c, 0xd1, 0xd0, 0xcf,
  0xcd, 0x00, 0x00, 0x00, 0x00, 0xb6, 0xbb, 0x00, 0x00, 0x00, 0x00, 0x00,
  0x2a, 0x00, 0x00, 0x30, 0x00, 0xce, 0x00, 0x00, 0x00, 0x2c, 0xd2, 0xb9,
  0x00, 0x9b, 0xcb, 0x00, 0x00, 0x00, 0xc6, 0x00, 0x00, 0x39, 0xb7, 0xb5,
  0x00, 0x00, 0x34, 0x00, 0x00, 0xc9, 0x00, 0x00, 0x2e, 0x00, 0xa9, 0x00,
  0xdd, 0xc5, 0x00, 0x00, 0x00, 0x00, 0x00, 0xcb, 0x00, 0x00, 0x31, 0x00,
  0x00, 0x00, 0x28, 0x00, 0x00, 0xa5, 0x00, 0x00, 0x00, 0x00, 0x00, 0xad,
  0xb6, 0x00, 0x00, 0x00, 0x30, 0x00, 0x28, 0x00, 0xb6, 0xd0, 0x2e, 0x58,
  0x00, 0xc4, 0x00, 0x00, 0x00, 0xdc, 0xd1, 0x29, 0x52, 0x00, 0x00, 0xcc,
  0xd2, 0x2e, 0xd9, 0x00, 0x00, 0x00, 0x00, 0xb6, 0x00, 0xcc, 0x00, 0x3f,
  0xc8, 0x00, 0xc5, 0x42, 0x31, 0x00, 0x00, 0x00, 0x00, 0x00, 0xdd, 0xdd,
  0x00, 0xc1, 0x00, 0x00, 0x00, 0x00, 0x42, 0x00, 0x00, 0x00, 0xaf, 0x00,
  0x00, 0x00, 0x00, 0x00, 0x98, 0x00, 0x00, 0x00, 0xbe, 0x00, 0x00, 0x91,
  0x42, 0x3f, 0x42, 0x00, 0x56, 0x00, 0x8f, 0x00, 0x97, 0x8b, 0x00, 0x00,
  0x00, 0xb6, 0x84, 0x93, 0x8b, 0x6f, 0x3d, 0x00, 0x00, 0x67, 0xb0, 0x00,
  0x00, 0xa1, 0x00, 0x48, 0x00, 0x00, 0x7b, 0x5e, 0xb2, 0x52, 0x69, 0x00,
  0x00, 0x63, 0xa9, 0x55, 0xa0, 0x00, 0x48, 0x00, 0x6b, 0x00, 0x00, 0x00,
  0x9b, 0x69, 0x46, 0x00, 0x5a, 0x00, 0x57, 0xa9, 0x8b, 0x00, 0x00, 0x00,
  0x00, 0x00, 0x00, 0x62, 0x00, 0x00, 0x92, 0x00, 0x58, 0x00, 0x00, 0x00,
  0x00, 0x00, 0x4b, 0x00, 0x51, 0x00, 0x00, 0x00, 0x00, 0xb1, 0x00, 0x56,
  0x64, 0x00, 0x00, 0x40, 0xbc, 0x6a, 0x56, 0x00, 0x00, 0x5d, 0xa6, 0x6f,
  0x00, 0x00, 0x00, 0x50, 0xb4, 0x54, 0x52, 0x73, 0x00, 0xb1, 0x00, 0x00,
  0x90, 0x00, 0x00, 0x00, 0x00, 0x00, 0x00, 0x00, 0x00, 0x00, 0xb8, 0x00,
  0xc0, 0xbf, 0x00, 0x00, 0x54, 0x58, 0xa7, 0x00, 0x00, 0x66, 0xba, 0x8c,
  0x7a, 0xbc, 0x49, 0x00, 0x00, 0x00, 0xa8, 0x65, 0x00, 0x00, 0x00, 0x00,
  0x00, 0x00, 0x61, 0x00, 0x00, 0x00, 0x00, 0x6a, 0x00, 0xa5, 0x00, 0xaa,
  0xba, 0x3f, 0x00, 0x00, 0x00, 0x00, 0x00, 0x6b, 0xa7, 0x00, 0x3e, 0xb8,
  0x4d, 0x00, 0x00, 0x4f, 0x68, 0x00, 0x75, 0x6b, 0x00, 0x9f, 0x00, 0x00,
  0xc0, 0x00, 0x00, 0xaa, 0x00, 0x00, 0x00, 0x00, 0x41, 0x5b, 0x93, 0x94,
  0x53, 0x00, 0x98, 0x00, 0xad, 0x9a, 0x58, 0x00, 0x00, 0x00, 0x52, 0x00,
  0x97, 0x00, 0x48, 0x00, 0x68, 0x53, 0x00, 0x00, 0xac, 0x7a, 0x00, 0x45,
  0x94, 0x00, 0x00, 0x00, 0xab, 0x60, 0x00, 0x00, 0x66, 0x5f, 0xa8, 0x00,
  0x56, 0xb0, 0x77, 0x00, 0xb6, 0x4a, 0x40, 0x00, 0x00, 0xaf, 0x00, 0x50,
  0xc1, 0x4a, 0x00, 0x00, 0x8a, 0x00, 0x00, 0x00, 0x00, 0x42, 0xa8, 0x00,
  0x4a, 0x50, 0x00, 0x8d, 0xae, 0xa2, 0x00, 0x7c, 0x00, 0x00, 0x7e, 0x00,
  0x56, 0xb5, 0x50, 0x00, 0x00, 0x00, 0x00, 0x00, 0x00, 0x00, 0x4e, 0xb5,
  0xbf, 0x00, 0xa7, 0x9d, 0xb5, 0x3e, 0x00, 0xbc, 0x00, 0x94, 0x77, 0x00,
  0x7a, 0x00, 0x5b, 0x50, 0x00, 0x3e, 0x00, 0x66, 0x4f, 0x00, 0xc4, 0x51,
  0x4b, 0x9f, 0x00, 0x00, 0xbb, 0xad, 0x00, 0xa4, 0x00, 0x00, 0x79, 0x00,
  0x00, 0x40, 0x00, 0x00, 0x00, 0x7a, 0x00, 0x00, 0x75, 0xb2, 0x00, 0x00,
  0x3c, 0xba, 0x97, 0x00, 0x00, 0x00, 0x54, 0x5a, 0x00, 0x00, 0xb8, 0x00,
  0x68, 0x00, 0x00, 0x00, 0x00, 0x00, 0x00, 0x00, 0x00, 0x00, 0xbf, 0x00,
  0x00, 0xa3, 0x52, 0x00, 0x00, 0xa1, 0x00, 0x00, 0x00, 0x00, 0x00, 0xa1,
  0x63, 0x75, 0x00, 0x00, 0x7e, 0x76, 0x00, 0x5f, 0xa6, 0x00, 0x00, 0x46,
  0x00, 0x9b, 0xaf, 0x71, 0x62, 0x00, 0x00, 0x00, 0x68, 0x00, 0x00, 0x00,
  0x00, 0x3e, 0x00, 0x81, 0xb9, 0xbd, 0x00, 0x00, 0xa7, 0x97, 0x00, 0x00,
  0x41, 0x7c, 0xa8, 0x00, 0x9d, 0x7f, 0x79, 0xaa, 0x9d, 0x43, 0x92, 0x00,
  0x00, 0x00, 0x97, 0x5d, 0xb9, 0x00, 0x00, 0x00, 0x00, 0x77, 0x00, 0xc1,
  0x4e, 0x9f, 0xbb, 0x00, 0xb0, 0x00, 0x00, 0x00, 0x00, 0x00, 0x9b, 0x00,
  0x00, 0x5e, 0x00, 0x51, 0x57, 0x00, 0x45, 0xc3, 0xbf, 0x45, 0x00, 0x00,
  0x00, 0xa8, 0x4d, 0x00, 0x00, 0x54, 0xba, 0x00, 0x00, 0x00, 0x00, 0x00,
  0xb8, 0xb2, 0x00, 0x00, 0x00, 0x00, 0x9b, 0xa4, 0x00, 0x44, 0xc4, 0x51,
  0x73, 0x6f, 0x43, 0x00, 0xaf, 0x00, 0x92, 0x00, 0x00, 0x00, 0x00, 0x52,
  0x43, 0x00, 0xbb, 0x00, 0x5d, 0xae, 0x42, 0x00, 0x00, 0x00, 0x00, 0x00,
  0x00, 0x00, 0x00, 0x88, 0x00, 0x00, 0x00, 0xb6, 0x54, 0x00, 0xb2, 0x00,
  0x68, 0x00, 0x00, 0x93, 0x00, 0x6c, 0xb4, 0x40, 0x69, 0x00, 0x3d, 0x00,
  0x00, 0x00, 0x99, 0x00, 0x00, 0x00, 0x00, 0x00, 0x6b, 0x00, 0x83, 0x00,
  0x00, 0x00, 0x00, 0xaa, 0xa1, 0x00, 0x00, 0x00, 0x6a, 0xb8, 0x55, 0xaa,
  0x3d, 0x00, 0x00, 0x00, 0x1b, 0x24, 0x00, 0x00, 0x00, 0xd3, 0x32, 0x00,
  0x00, 0x00, 0x00, 0xdf, 0x00, 0xe2, 0xe5, 0xe7, 0x00, 0xdc, 0x1b, 0xe1,
  0x00, 0xd0, 0xc0, 0x29, 0xea, 0x27, 0xc3, 0xc5, 0x17, 0xd5, 0x00, 0x00,
  0xc5, 0x00, 0x00, 0x00, 0xc0, 0x81, 0x00, 0xdc, 0xe3, 0xcd, 0x00, 0xdd,
  0x00, 0x00, 0x00, 0xd6, 0x00, 0xdf, 0xe3, 0xe5, 0xd8, 0x00, 0x00, 0xe8,
  0x00, 0x00, 0x00, 0x17, 0x00, 0x00, 0x00, 0xb8, 0x00, 0xca, 0x30, 0x00,
  0x00, 0x00, 0x1b, 0x00, 0x00, 0x00, 0x00, 0xdb, 0x00, 0x00, 0x1b, 0x2e,
  0xe8, 0x21, 0xdc, 0xd5, 0x00, 0x18, 0x00, 0x00, 0x00, 0x22, 0x00, 0x00,
  0x00, 0x21, 0x00, 0x00, 0x00, 0x1a, 0x00, 0x00, 0x1a, 0x16, 0x00, 0x00,
  0xdf, 0x32, 0xe1, 0x00, 0xc5, 0xe4, 0x2c, 0x00, 0x00, 0x29, 0x2b, 0x00,
  0x00, 0xb9, 0x00, 0xc7, 0x1d, 0x00, 0x1e, 0x24, 0x00, 0x00, 0x00, 0x00,
  0x00, 0x00, 0x00, 0xdf, 0xdf, 0x00, 0xe9, 0xd9, 0x00, 0x00, 0xda, 0x00,
  0x00, 0x00, 0x2c, 0x39, 0x00, 0xa5, 0x36, 0x00, 0x19, 0x00, 0x00, 0x00,
  0x56, 0x00, 0x00, 0x00, 0x00, 0x00, 0xc8, 0xe0, 0xe1, 0xe8, 0x00, 0x00,
  0x00, 0xe3, 0x00, 0x1e, 0x00, 0x00, 0x00, 0x00, 0x00, 0xeb, 0x1e, 0x15,
  0xe2, 0x00, 0x00, 0x00, 0xd7, 0x00, 0x4c, 0x00, 0x17, 0xcf, 0x00, 0xbe,
  0x15, 0x26, 0x00, 0x00, 0x1f, 0x1c, 0x00, 0xea, 0x00, 0x00, 0xb6, 0xbb,
  0xd8, 0x2d, 0x1c, 0x22, 0x00, 0x00, 0x00, 0x00, 0x00, 0x00, 0x00, 0x00,
  0x17, 0x00, 0x00, 0x00, 0x19, 0x21, 0x00, 0x00, 0x00, 0xe2, 0x00, 0x16,
  0x00, 0xe2, 0x1b, 0x28, 0x22, 0x18, 0x00, 0xe9, 0x00, 0x00, 0x00, 0x00,
  0x00, 0x00, 0xd5, 0xe8, 0xe2, 0xd0, 0x15, 0xe1, 0x16, 0xd9, 0x00, 0xd6,
  0xe2, 0x00, 0xc6, 0x00, 0xdc, 0xd9, 0x00, 0x00, 0xdb, 0x21, 0xe5, 0x00,
  0xde, 0x00, 0x00, 0xd3, 0xb2, 0x31, 0x00, 0x22, 0x00, 0x00, 0x15, 0x00,
  0x18, 0xda, 0x2a, 0x00, 0x00, 0xd3, 0x00, 0x00, 0x23, 0x29, 0xe3, 0x14,
  0x00, 0x2a, 0x00, 0x19, 0x00, 0x00, 0x1f, 0xd5, 0x00, 0xdd, 0x00, 0x33,
  0x00, 0x00, 0xce, 0x00, 0x00, 0xec, 0x00, 0x1a, 0x00, 0x00, 0xe0, 0x00,
  0x00, 0xea, 0x00, 0x00, 0x16, 0x25, 0x00, 0x1e, 0xe9, 0x00, 0x00, 0xe5,
  0x00, 0x00, 0x00, 0x19, 0xde, 0x00, 0xe9, 0x00, 0x00, 0xdc, 0x00, 0x00,
  0x21, 0x00, 0xe8, 0x00, 0x20, 0x17, 0x00, 0x00, 0x00, 0x19, 0x00, 0xe9,
  0xe9, 0xe2, 0x00, 0x00, 0xe5, 0x00, 0x00, 0xea, 0x00, 0x00, 0x00, 0xe1,
  0xde, 0x00, 0x00, 0x00, 0x19, 0x22, 0x00, 0x00, 0x18, 0x2c, 0x16, 0xe2,
  0x00, 0x00, 0x1e, 0x00, 0x26, 0x19, 0x00, 0x29, 0x00, 0x00, 0x00, 0xd8,
  0x00, 0x00, 0x00, 0x1c, 0x00, 0xe2, 0xe9, 0xe3, 0x00, 0x00, 0x1c, 0xe7,
  0x00, 0xeb, 0x00, 0x00, 0x00, 0x24, 0x00, 0x18, 0x26, 0xe5, 0x00, 0x00,
  0x00, 0x00, 0x00, 0x00, 0xe1, 0x00, 0x22, 0xe8, 0xe8, 0x00, 0xea, 0x24,
  0xd9, 0x24, 0x00, 0x00, 0xe5, 0x1e, 0xde, 0x00, 0x19, 0x00, 0x00, 0x00,
  0x00, 0x2b, 0x00, 0xd8, 0x15, 0xdd, 0x00, 0x00, 0x00, 0xe4, 0xea, 0x00,
  0x00, 0x00, 0x00, 0xdd, 0x2c, 0x2a, 0x00, 0x00, 0xc9, 0x00, 0x00, 0xaa,
  0xe5, 0x00, 0x2e, 0xea, 0xd9, 0xda, 0xc0, 0xd7, 0xe5, 0xde, 0x00, 0x1b,
  0xe1, 0x00, 0xd4, 0x00, 0x00, 0xd4, 0x00, 0x00, 0x00, 0x00, 0xd5, 0xe1,
  0x1a, 0x27, 0x00, 0x00, 0x21, 0x00, 0x00, 0x00, 0x1e, 0x00, 0xd3, 0xe8,
  0xe8, 0x00, 0xe0, 0x1f, 0x1b, 0xd9, 0x00, 0x15, 0xea, 0x00, 0x00, 0x00,
  0xda, 0x00, 0x00, 0xda, 0x00, 0xda, 0xe9, 0x00, 0x20, 0x32, 0x29, 0x00,
  0x00, 0xd2, 0xcb, 0x00, 0x00, 0xdb, 0x26, 0xe4, 0x00, 0x00, 0x00, 0x16,
  0x00, 0xc5, 0x00, 0x29, 0x00, 0x00, 0x14, 0xce, 0xea, 0xe1, 0x00, 0xdc,
  0x00, 0xe9, 0x00, 0x00, 0xe5, 0x00, 0xea, 0x00, 0xd2, 0xdd, 0x00, 0x00,
  0x2b, 0x18, 0x00, 0x00, 0x00, 0x00, 0x00, 0x00, 0x30, 0x1e, 0x00, 0x43,
  0xe0, 0xba, 0x4d, 0x4a, 0x00, 0x00, 0xc9, 0x62, 0x50, 0x98, 0x00, 0x00,
  0x00, 0x37, 0x55, 0x5d, 0x00, 0x00, 0x65, 0xca, 0x4f, 0x00, 0x38, 0x00,
  0x51, 0xad, 0x00, 0x00, 0x43, 0x00, 0xb1, 0x00, 0x00, 0x46, 0x40, 0x3c,
  0x00, 0x44, 0x3d, 0x00, 0x00, 0xa0, 0x00, 0x00, 0x5f, 0x6e, 0xb9, 0x00,
  0x5e, 0x7a, 0x39, 0x00, 0xb5, 0x00, 0x00, 0x00, 0x3e, 0xb3, 0x00, 0x00,
  0x3e, 0x63, 0x4e, 0x00, 0x64, 0x36, 0x00, 0x00, 0x00, 0x00, 0x5e, 0x00,
  0xc9, 0x00, 0xaa, 0x00, 0x00, 0x8f, 0x00, 0xbd, 0x59, 0x00, 0x00, 0x00,
  0x00, 0x62, 0xa7, 0xb7, 0xad, 0x40, 0x59, 0xa7, 0x00, 0xc3, 0x00, 0x00,
  0x48, 0xc8, 0x64, 0xb1, 0x00, 0x00, 0x43, 0x54, 0xa6, 0x00, 0xbe, 0xc1,
  0x00, 0x00, 0x00, 0x43, 0xc1, 0xc0, 0xaf, 0x3b, 0x00, 0x00, 0x55, 0xc9,
  0x00, 0x00, 0x4c, 0xb5, 0x35, 0xac, 0x00, 0x00, 0x00, 0x45, 0x3d, 0x5f,
  0x00, 0x99, 0x00, 0x00, 0x00, 0x00, 0x6c, 0x5b, 0x00, 0x00, 0x00, 0xb3,
  0xc9, 0x50, 0x00, 0x00, 0x00, 0x00, 0x00, 0xa7, 0xbd, 0x00, 0x00, 0x00,
  0xc0, 0x00, 0x00, 0x00, 0x00, 0x81, 0x00, 0xbc, 0x00, 0x00, 0x51, 0xad,
  0x00, 0x00, 0xc7, 0x61, 0x71, 0x00, 0x00, 0x00, 0xb7, 0x00, 0xc5, 0xae,
  0xbc, 0x00, 0x6e, 0x46, 0xbc, 0x00, 0x56, 0x00, 0x00, 0x00, 0x3a, 0x00,
  0xc4, 0x64, 0x00, 0x9d, 0x5c, 0xbe, 0x00, 0x00, 0x70, 0x00, 0x00, 0x55,
  0xa2, 0x00, 0x00, 0x00, 0x57, 0x00, 0xc9, 0x97, 0x9b, 0xbd, 0x00, 0xc2,
  0x00, 0xbc, 0x43, 0xaa, 0xc5, 0x76, 0x36, 0xa3, 0xcc, 0x00, 0x00, 0x00,
  0x00, 0x00, 0xbb, 0xc8, 0x00, 0x00, 0x00, 0x4a, 0x37, 0xc0, 0x00, 0x00,
  0xb9, 0x58, 0x00, 0x39, 0xaa, 0x5a, 0xab, 0x00, 0x00, 0x00, 0x00, 0xb3,
  0x8c, 0x48, 0x00, 0x4c, 0x4b, 0x52, 0x00, 0x00, 0x52, 0x45, 0xa9, 0x00,
  0x00, 0x00, 0xb3, 0xbb, 0x00, 0x00, 0xab, 0xcb, 0x00, 0xb1, 0x00, 0x00,
  0xad, 0xb8, 0x00, 0x00, 0x00, 0x37, 0x00, 0x00, 0xc9, 0x72, 0x44, 0x4d,
  0x00, 0x00, 0x39, 0x00, 0x00, 0x42, 0x00, 0xa4, 0x00, 0x00, 0x00, 0x00,
  0x00, 0x00, 0xc9, 0x3c, 0x00, 0x00, 0x00, 0x00, 0x00, 0xbc, 0xa8, 0x00,
  0x00, 0x66, 0x5e, 0x00, 0x00, 0x3e, 0xc2, 0x00, 0x00, 0x00, 0x00, 0x4a,
  0xcb, 0x00, 0x00, 0x00, 0x41, 0xb9, 0x52, 0x00, 0x66, 0x00, 0x00, 0x00,
  0x54, 0x00, 0xb8, 0x00, 0x00, 0x44, 0x00, 0x00, 0x00, 0x00, 0x59, 0x00,
  0x00, 0xa5, 0x5f, 0x00, 0x00, 0x66, 0x47, 0x53, 0x4f, 0x00, 0x6c, 0x00,
  0x00, 0x00, 0x65, 0x5d, 0x45, 0xa5, 0x4f, 0xc2, 0x50, 0xc9, 0x00, 0xc3,
  0x6b, 0x00, 0x00, 0x49, 0x5c, 0xc0, 0x6c, 0x00, 0x00, 0x00, 0xc3, 0x47,
  0x00, 0x6b, 0x00, 0x00, 0x6d, 0x3c, 0x00, 0x45, 0x00, 0x00, 0x49, 0x00,
  0x00, 0x00, 0x9d, 0x00, 0x00, 0x00, 0x62, 0x00, 0x00, 0x00, 0x55, 0x00,
  0x00, 0x00, 0x00, 0x00, 0x00, 0x00, 0x00, 0xcb, 0x38, 0xad, 0x63, 0x5d,
  0x00, 0xb0, 0x66, 0x70, 0x43, 0x00, 0xc8, 0x00, 0x00, 0x42, 0x00, 0x00,
  0xb3, 0xc7, 0xc1, 0x6b, 0x42, 0xaa, 0x00, 0xb5, 0x65, 0xba, 0x00, 0x00,
  0x00, 0xc1, 0x9f, 0xc2, 0x00, 0x00, 0x00, 0x00, 0x00, 0x36, 0x00, 0x4e,
  0x57, 0x64, 0x00, 0x00, 0xaa, 0x00, 0x00, 0x4a, 0x42, 0x00, 0xcc, 0x5d,
  0x00, 0x64, 0x00, 0x6e, 0xca, 0x00, 0x43, 0x00, 0x71, 0x00, 0xb8, 0x00,
  0x00, 0x6a, 0x00, 0x00, 0x00, 0x3c, 0x5f, 0x00, 0xc6, 0xbb, 0x00, 0x38,
  0x00, 0x00, 0x5d, 0x00, 0x00, 0x00, 0x38, 0x4f, 0x3c, 0xb7, 0x00, 0x68,
  0x3d, 0xbf, 0x69, 0xaf, 0x00, 0xb7, 0xa8, 0xac, 0x00, 0x00, 0x00, 0x4e,
  0xc7, 0x39, 0x00, 0x00, 0x00, 0x00, 0x71, 0x00, 0x00, 0xb5, 0x00, 0x00,
  0xbd, 0x54, 0x00, 0x37, 0x6b, 0x6a, 0x00, 0x00, 0x00, 0x00, 0xc8, 0x3d,
  0x00, 0x78, 0xb0, 0x00, 0x3c, 0x00, 0x00, 0x00, 0x00, 0x00, 0xc8, 0x44,
  0x00, 0xaa, 0x77, 0xc1, 0x00, 0x00, 0x00, 0x58, 0x93, 0xa7, 0x1e, 0xdc,
  0x2e, 0x00, 0xd7, 0x2f, 0x00, 0x00, 0x29, 0x50, 0xce, 0x00, 0xca, 0xdd,
  0x00, 0x00, 0x3a, 0xb6, 0x1d, 0x00, 0x2b, 0x00, 0xb9, 0x36, 0x00, 0x00,
  0xdf, 0x00, 0x1d, 0x00, 0x49, 0x22, 0x00, 0xe0, 0x2e, 0xdb, 0x00, 0x00,
  0x00, 0xce, 0xdd, 0x48, 0x1c, 0xcb, 0x00, 0x00, 0x00, 0xc3, 0x00, 0xa9,
  0x28, 0xcd, 0x81, 0x1d, 0x20, 0xa8, 0xb3, 0x1d, 0x00, 0x00, 0xc2, 0xd3,
  0x30, 0xdb, 0xcd, 0x00, 0x00, 0x00, 0x00, 0x00, 0xe1, 0x00, 0x2d, 0x00,
  0x00, 0x00, 0x00, 0xe1, 0x1f, 0xdc, 0xe3, 0x00, 0x00, 0xe3, 0x00, 0x33,
  0x1f, 0x00, 0x00, 0x31, 0xda, 0x00, 0x1c, 0xda, 0x00, 0x00, 0x00, 0x00,
  0xcb, 0x00, 0x00, 0x3c, 0x2a, 0xe1, 0x25, 0xc6, 0xca, 0x00, 0xc3, 0x00,
  0x00, 0x00, 0x27, 0x00, 0x1b, 0x00, 0x00, 0x00, 0x00, 0xcb, 0x3b, 0x00,
  0x30, 0x00, 0xd0, 0x00, 0x00, 0x00, 0x2a, 0xd8, 0x00, 0x00, 0xcc, 0x00,
  0x00, 0x00, 0x00, 0x00, 0x00, 0xcd, 0x00, 0x3e, 0x20, 0x00, 0xc5, 0x23,
  0x26, 0xb7, 0x00, 0xd8, 0x2a, 0x00, 0xd9, 0x00, 0x00, 0xe2, 0x00, 0xb9,
  0x00, 0x00, 0x00, 0x00, 0x47, 0xd6, 0x00, 0x00, 0x00, 0x33, 0x00, 0x24,
  0xba, 0x3e, 0x2e, 0xd8, 0x00, 0xde, 0xc0, 0x1c, 0xd9, 0xd7, 0x1d, 0x23,
  0x00, 0x22, 0xd0, 0x2f, 0x4b, 0x00, 0x00, 0x00, 0x00, 0x00, 0x00, 0x00,
  0x6b, 0x00, 0xbf, 0x00, 0x00, 0xd0, 0x00, 0x24, 0x00, 0x00, 0x00, 0x00,
  0xde, 0x00, 0x00, 0x00, 0xdc, 0x35, 0xdc, 0xdc, 0x22, 0x25, 0x00, 0x00,
  0xe5, 0x00, 0xdc, 0x26, 0x00, 0x3b, 0x00, 0x22, 0x20, 0xd3, 0x00, 0x00,
  0x1f, 0x00, 0x00, 0x00, 0xdb, 0x00, 0x1f, 0x00, 0x00, 0x3d, 0x00, 0x00,
  0xdb, 0x3d, 0x35, 0x00, 0x00, 0x21, 0x34, 0x00, 0x26, 0x00, 0xe2, 0x00,
  0xcd, 0xdb, 0xdf, 0xcf, 0xcb, 0xcf, 0x00, 0x00, 0xe0, 0x00, 0x00, 0x41,
  0x00, 0x31, 0x40, 0x00, 0x00, 0x2d, 0x34, 0x00, 0x00, 0x00, 0x2a, 0x00,
  0x1c, 0x00, 0x00, 0x24, 0x00, 0xe2, 0x39, 0xcd, 0x00, 0x23, 0x21, 0x27,
  0x34, 0x00, 0x00, 0x00, 0xda, 0x00, 0x00, 0x00, 0x00, 0xd6, 0x00, 0x00,
  0x00, 0x00, 0x00, 0x21, 0x00, 0x43, 0x00, 0x00, 0x00, 0x20, 0x00, 0x28,
  0x00, 0x00, 0x00, 0xbe, 0xe5, 0xcd, 0xc1, 0x1c, 0x00, 0x00, 0x00, 0xc6,
  0x00, 0xdd, 0x00, 0xcc, 0x00, 0xd3, 0xc6, 0xc1, 0xe4, 0x00, 0x29, 0xc9,
  0xe1, 0x00, 0xdb, 0x00, 0x00, 0x22, 0x2c, 0x28, 0x00, 0x00, 0xc6, 0x24,
  0x00, 0x00, 0x00, 0x00, 0xd9, 0x00, 0x21, 0x1d, 0x00, 0x00, 0x00, 0x00,
  0xd6, 0x00, 0x2d, 0xe2, 0x29, 0x00, 0x00, 0x00, 0x00, 0x00, 0x1d, 0x00,
  0xdb, 0x25, 0x00, 0x00, 0xd3, 0x00, 0xc4, 0x00, 0xbd, 0x26, 0x24, 0x00,
  0x00, 0x00, 0xcb, 0x00, 0x00, 0x38, 0x00, 0x00, 0x00, 0x39, 0xdf, 0x00,
  0x00, 0x00, 0x00, 0x00, 0xca, 0xe5, 0x00, 0x00, 0x1c, 0x00, 0x00, 0xd4,
  0xd5, 0x00, 0xd9, 0xd3, 0x00, 0x00, 0xd3, 0x35, 0xc5, 0x00, 0x21, 0x1f,
  0xc7, 0x23, 0x00, 0x22, 0xe2, 0xd1, 0x00, 0xdc, 0x00, 0xdd, 0x38, 0xca,
  0x00, 0xe1, 0x00, 0xdf, 0x00, 0xd7, 0xde, 0x23, 0xe0, 0x00, 0x00, 0x00,
  0xde, 0x37, 0x00, 0xca, 0x00, 0x00, 0x00, 0x31, 0x00, 0x2d, 0x00, 0x00,
  0xbc, 0xd0, 0x00, 0x00, 0xc7, 0x00, 0x00, 0x00, 0x00, 0x00, 0x25, 0xa9,
  0xbc, 0xc0, 0x00, 0xe1, 0xcf, 0x00, 0xc6, 0x1f, 0xdc, 0x00, 0xdc, 0x00,
  0xde, 0xc1, 0xdf, 0xcb, 0x00, 0x00, 0x00, 0x00, 0x00, 0xdf, 0xb8, 0xce,
  0x00, 0xd7, 0x00, 0x00, 0x00, 0xd4, 0xdf, 0xdf, 0x30, 0x24, 0x00, 0x00,
  0xd3, 0x00, 0x4c, 0x43, 0x00, 0x00, 0xe0, 0xa6, 0x00, 0xdd, 0x28, 0x00,
  0x38, 0x00, 0x00, 0x00, 0x00, 0x34, 0x00, 0x00, 0x00, 0x20, 0x00, 0x2c,
  0x00, 0x00, 0x1d, 0xe5, 0x00, 0x00, 0x34, 0x00, 0x44, 0x00, 0xc5, 0x00,
  0x20, 0x00, 0x00, 0xdb, 0x00, 0x00, 0xd1, 0x00, 0x00, 0x00, 0xbf, 0x00,
  0x00, 0x00, 0x00, 0x00, 0x36, 0xe5, 0x22, 0xa6, 0xc4, 0xd9, 0x00, 0x00,
  0x00, 0xbe, 0x00, 0x5f, 0xbd, 0x00, 0x00, 0xaa, 0xba, 0x00, 0x38, 0xd7,
  0x29, 0x00, 0xd5, 0x3c, 0x00, 0x00, 0xbb, 0xcc, 0xc9, 0x00, 0x00, 0x00,
  0x3e, 0x00, 0x00, 0x00, 0x00, 0x00, 0xa3, 0x45, 0x00, 0x00, 0x3a, 0x6b,
  0x00, 0x31, 0x2f, 0x00, 0x2d, 0x00, 0x4f, 0xd9, 0x00, 0xc6, 0x00, 0x5a,
  0x00, 0xb9, 0x6f, 0x54, 0xa9, 0x00, 0x37, 0x00, 0x30, 0x00, 0x00, 0x00,
  0x46, 0x00, 0x00, 0x2d, 0x00, 0x00, 0xad, 0x00, 0x00, 0x38, 0x00, 0x28,
  0xc4, 0x00, 0xd2, 0x00, 0x00, 0x00, 0x3d, 0x40, 0x00, 0xd9, 0x00, 0xd0,
  0x00, 0xc9, 0x00, 0x8a, 0xad, 0x00, 0x00, 0x00, 0x00, 0xd4, 0x00, 0x00,
  0x44, 0x5b, 0x00, 0x41, 0x00, 0x00, 0x00, 0x00, 0x2a, 0x00, 0x3a, 0x00,
  0x36, 0x00, 0xa7, 0xc0, 0x00, 0xc1, 0x00, 0xc2, 0x00, 0x00, 0xd5, 0x66,
  0x00, 0xbf, 0x00, 0x54, 0x00, 0x00, 0x00, 0x00, 0x00, 0x38, 0x38, 0x32,
  0x46, 0x3e, 0xc3, 0x31, 0x48, 0x00, 0x00, 0x00, 0x4b, 0x00, 0x00, 0x00,
  0xd6, 0x00, 0xc8, 0x9c, 0x00, 0xc2, 0x27, 0xc7, 0x00, 0xbf, 0x3a, 0x31,
  0x00, 0x00, 0x58, 0x00, 0x00, 0x00, 0xca, 0xbb, 0x55, 0x55, 0xb8, 0x00,
  0x00, 0xac, 0x00, 0x5b, 0x00, 0x00, 0x00, 0x00, 0x00, 0xa2, 0x00, 0x33,
  0x00, 0x00, 0x00, 0x00, 0x8a, 0xba, 0xb1, 0x00, 0x33, 0x00, 0x00, 0xcf,
  0x83, 0x00, 0x00, 0xc8, 0xab, 0x00, 0x00, 0x49, 0xd4, 0xd0, 0xd4, 0x00,
  0x2b, 0x00, 0x00, 0x00, 0x00, 0x00, 0xc0, 0x00, 0x00, 0x00, 0xcf, 0x00,
  0xc1, 0xcf, 0xce, 0x00, 0xd7, 0x00, 0xc0, 0x47, 0x4a, 0x00, 0x00, 0x00,
  0xb8, 0xbb, 0x00, 0xc2, 0x00, 0x00, 0x00, 0x00, 0xcf, 0xcc, 0x00, 0x00,
  0x00, 0xcc, 0xd7, 0xc3, 0x34, 0x00, 0x65, 0x00, 0x2d, 0x00, 0xae, 0x31,
  0x32, 0x3f, 0x40, 0x00, 0x00, 0x92, 0x29, 0x00, 0x00, 0x00, 0xd5, 0x00,
  0x00, 0x00, 0x00, 0x00, 0x5b, 0xd3, 0x00, 0x48, 0x00, 0x2c, 0x00, 0x00,
  0xc2, 0x35, 0x00, 0x00, 0xd4, 0x00, 0x32, 0x00, 0xb1, 0xb8, 0x00, 0x00,
  0x00, 0xbb, 0x00, 0x43, 0x3b, 0x00, 0x00, 0x00, 0x00, 0x00, 0x2c, 0x00,
  0x00, 0x32, 0x00, 0x2d, 0x00, 0x00, 0x00, 0x00, 0x00, 0xba, 0x3a, 0x2a,
  0x00, 0x00, 0x00, 0x2a, 0x00, 0x39, 0xd7, 0x00, 0xca, 0xc5, 0x00, 0x00,
  0x36, 0xd4, 0x00, 0xc5, 0x00, 0x27, 0x3e, 0x00, 0x2c, 0x00, 0x28, 0x37,
  0x00, 0x00, 0x00, 0x00, 0x00, 0x29, 0x00, 0x5a, 0x00, 0x34, 0x52, 0x46,
  0x30, 0xc3, 0x44, 0x36, 0x00, 0xb9, 0x00, 0xd9, 0x00, 0x00, 0x3e, 0x00,
  0x3e, 0x00, 0x00, 0xb6, 0x00, 0xad, 0x00, 0x00, 0x49, 0x2c, 0x00, 0x00,
  0x52, 0x00, 0x48, 0x00, 0xa5, 0x00, 0x00, 0x2f, 0x00, 0xb0, 0x00, 0x00,
  0x00, 0x3f, 0x00, 0xd1, 0xce, 0x27, 0x00, 0x00, 0x00, 0xca, 0x00, 0x00,
  0x00, 0x00, 0x5d, 0x00, 0x00, 0x4d, 0x00, 0x00, 0x00, 0xd4, 0xbd, 0xd1,
  0x00, 0x00, 0x00, 0xc7, 0x3c, 0xcf, 0xd9, 0x00, 0xc2, 0x00, 0xcf, 0x00,
  0xd5, 0x00, 0x47, 0x4b, 0xb1, 0x00, 0x2e, 0xd9, 0x3a, 0x4c, 0x00, 0x00,
  0x00, 0xd3, 0x00, 0x30, 0x42, 0x00, 0x00, 0x3b, 0x00, 0x31, 0x00, 0x29,
  0x67, 0x00, 0x73, 0xcf, 0xae, 0x00, 0x00, 0x33, 0xcf, 0x56, 0x4b, 0xd3,
  0x4d, 0x58, 0x7f, 0x74, 0x52, 0x00, 0x62, 0x00, 0x77, 0x00, 0x28, 0x44,
  0x00, 0xd8, 0x00, 0x00, 0x00, 0x00, 0xc2, 0x00, 0x00, 0x00, 0x27, 0x00,
  0x00, 0x00, 0x00, 0x00, 0x91, 0x00, 0x31, 0x00, 0x00, 0x00, 0xd8, 0xc0,
  0x3e, 0x00, 0x00, 0x00, 0x29, 0x00, 0x00, 0x00, 0xc2, 0xca, 0x00, 0x00,
  0x00, 0xcd, 0x00, 0x56, 0x00, 0x00, 0x00, 0x00, 0x00, 0x00, 0x00, 0x00,
  0xbd, 0x00, 0x31, 0x55, 0x00, 0x00, 0xc1, 0x2f, 0x31, 0x00, 0x3f, 0x00,
  0x00, 0xc1, 0x3d, 0x00, 0x00, 0xd5, 0xce, 0x00, 0xcb, 0x00, 0x00, 0x28,
  0x00, 0xb3, 0x00, 0xd0, 0x00, 0x00, 0x00, 0x54, 0x56, 0x00, 0x00, 0x00,
  0x00, 0x96, 0xd3, 0x00, 0x00, 0xcb, 0xc8, 0x00, 0x00, 0xea, 0x00, 0x00,
  0x1a, 0x00, 0x00, 0x27, 0xea, 0xe5, 0x00, 0x1d, 0x1e, 0xd2, 0xe0, 0x00,
  0x00, 0x00, 0xee, 0x1e, 0xcf, 0x00, 0x16, 0x25, 0x00, 0x00, 0x00, 0x00,
  0x12, 0x00, 0xec, 0x1f, 0x2a, 0x00, 0xdb, 0xda, 0x00, 0x1f, 0xef, 0xca,
  0x00, 0xe8, 0xe1, 0xe9, 0xe1, 0x13, 0x34, 0x00, 0x20, 0x2a, 0x12, 0x00,
  0x1a, 0xdc, 0x00, 0xe8, 0x00, 0x00, 0x2b, 0x1a, 0x00, 0x00, 0x12, 0x00,
  0xd8, 0x13, 0x00, 0x00, 0x14, 0x00, 0xe7, 0x17, 0x00, 0x00, 0x00, 0x00,
  0x21, 0x13, 0xea, 0x1e, 0x00, 0x00, 0x21, 0x15, 0xe7, 0xd6, 0x00, 0x00,
  0x00, 0x00, 0x1b, 0xe5, 0xec, 0xdd, 0x00, 0x00, 0x19, 0x00, 0x00, 0x00,
  0x32, 0xe5, 0x16, 0xe7, 0xe6, 0xe1, 0x00, 0x00, 0x00, 0xef, 0xc3, 0xd6,
  0x00, 0xe7, 0x00, 0x17, 0x00, 0xcb, 0xde, 0x00, 0xe6, 0x00, 0x00, 0x19,
  0x1b, 0x25, 0xec, 0xef, 0xec, 0xe9, 0x2d, 0x26, 0x12, 0xe7, 0x00, 0xd7,
  0x00, 0x33, 0xc3, 0x00, 0x16, 0x31, 0x00, 0xe0, 0xf0, 0xc9, 0x29, 0x00,
  0xe5, 0x18, 0x00, 0xd6, 0xd5, 0x20, 0x00, 0x00, 0x00, 0xe5, 0x00, 0x00,
  0x19, 0xe2, 0x00, 0x00, 0xdb, 0x00, 0xd7, 0xc7, 0x20, 0x00, 0xec, 0x15,
  0xed, 0x1c, 0xe7, 0xdf, 0xe1, 0xd5, 0xb1, 0x22, 0x17, 0x47, 0x7f, 0x42,
  0xef, 0x00, 0x00, 0x00, 0x00, 0x2c, 0x40, 0x00, 0x00, 0xe0, 0xce, 0xe7,
  0x10, 0x00, 0x00, 0x21, 0x00, 0x00, 0xeb, 0x00, 0xef, 0x00, 0x00, 0x00,
  0xed, 0xed, 0x00, 0x00, 0x00, 0xee, 0xe3, 0xec, 0x00, 0x12, 0xe0, 0x00,
  0x00, 0x00, 0xe4, 0x00, 0xeb, 0x00, 0x12, 0x11, 0x00, 0xec, 0x14, 0x00,
  0x21, 0xe1, 0x1a, 0xed, 0x00, 0x00, 0x23, 0x29, 0x00, 0x00, 0x00, 0x00,
  0x00, 0x00, 0x00, 0x00, 0x00, 0x16, 0xe4, 0x11, 0x12, 0xe8, 0x1d, 0x00,
  0xef, 0x17, 0xd7, 0xe0, 0x10, 0x19, 0x00, 0x00, 0x00, 0x16, 0x00, 0x00,
  0x00, 0x00, 0x23, 0x25, 0x00, 0x00, 0x10, 0xed, 0x00, 0x00, 0x1b, 0x00,
  0x00, 0xf0, 0x00, 0xdd, 0xec, 0x00, 0x23, 0xee, 0x00, 0x00, 0x00, 0xe7,
  0x00, 0x18, 0xe5, 0x00, 0x12, 0x14, 0x00, 0x00, 0x17, 0x00, 0x00, 0x00,
  0xe8, 0x00, 0x00, 0x00, 0x00, 0x00, 0xee, 0x2b, 0x00, 0xdc, 0x00, 0xe3,
  0x00, 0x00, 0x00, 0x15, 0x00, 0x00, 0xdb, 0x00, 0x00, 0x17, 0x16, 0x20,
  0xcf, 0xeb, 0xe8, 0x00, 0x00, 0x00, 0x24, 0x00, 0xe4, 0x00, 0x00, 0xde,
  0x00, 0x00, 0xe2, 0x00, 0x00, 0xe8, 0x00, 0xf0, 0x00, 0xdb, 0xed, 0xdf,
  0xd9, 0x00, 0x1d, 0x00, 0xe0, 0xeb, 0x00, 0x00, 0x10, 0x14, 0x11, 0xef,
  0xed, 0xd7, 0x00, 0x00, 0x18, 0x00, 0xdf, 0x16, 0xdd, 0xda, 0x00, 0x23,
  0x00, 0xcf, 0x00, 0x00, 0x00, 0xf0, 0x00, 0xe9, 0x00, 0xd8, 0x00, 0x12,
  0xe3, 0x00, 0x00, 0x1d, 0x00, 0x00, 0xea, 0xe8, 0x00, 0xe1, 0x1f, 0xeb,
  0x00, 0x00, 0xd9, 0x00, 0x17, 0x00, 0xe6, 0x00, 0xe5, 0x00, 0x1e, 0xea,
  0x00, 0x00, 0x00, 0x00, 0x14, 0xe3, 0x00, 0x00, 0x00, 0xee, 0xe3, 0x00,
  0xed, 0xe4, 0x00, 0x19, 0x13, 0x00, 0x2f, 0xe0, 0x00, 0x00, 0xef, 0xd9,
  0x00, 0x11, 0x18, 0x00, 0x25, 0xec, 0x34, 0x1d, 0x00, 0xd3, 0xc0, 0x1e,
  0x00, 0x20, 0xec, 0x00, 0x18, 0x00, 0x00, 0x00, 0x00, 0x00, 0x00, 0xec,
  0x00, 0xd6, 0xe2, 0x00, 0xeb, 0x00, 0xd9, 0x00, 0xd5, 0x00, 0xd9, 0x2a,
  0xe9, 0x26, 0x00, 0x00, 0x00, 0x00, 0x00, 0x00, 0x00, 0x1d, 0x00, 0x1d,
  0x00, 0x00, 0x24, 0xe1, 0xde, 0xd8, 0x15, 0x00, 0xe7, 0x41, 0x00, 0x00,
  0x17, 0xf0, 0x26, 0x14, 0x00, 0x1d, 0x14, 0x00, 0x1b, 0x00, 0x00, 0x00,
  0x11, 0x00, 0x10, 0xe7, 0xd2, 0x00, 0x00, 0x20, 0x00, 0xec, 0x00, 0xe3,
  0x12, 0x00, 0xe5, 0xd9, 0x13, 0x00, 0x00, 0xda, 0x00, 0x17, 0x00, 0x00,
  0xea, 0xe6, 0xdb, 0x00, 0x00, 0x00, 0xe7, 0x00, 0x11, 0x00, 0x00, 0xf0,
  0x00, 0x00, 0xe6, 0x00, 0x00, 0x14, 0x11, 0x00, 0x00, 0xec, 0x00, 0x00,
  0x18, 0x81, 0x00, 0x00, 0xc7, 0xbd, 0x00, 0x00, 0xb9, 0x61, 0xc9, 0x40,
  0x3c, 0x6d, 0x00, 0x46, 0x00, 0x00, 0x00, 0xc4, 0x9e, 0xa8, 0x00, 0x8c,
  0xa0, 0xa2, 0x43, 0xa4, 0x00, 0x00, 0x00, 0x00, 0x00, 0xaa, 0x43, 0xbd,
  0x99, 0xa4, 0x3c, 0x00, 0x37, 0x4c, 0xba, 0x00, 0x39, 0x00, 0xb3, 0x4d,
  0x00, 0x00, 0x00, 0x00, 0x51, 0x9a, 0x00, 0x00, 0x00, 0x00, 0x00, 0x4f,
  0x6a, 0xc3, 0x00, 0xba, 0x00, 0x6a, 0xc0, 0x00, 0x00, 0x41, 0x00, 0x00,
  0x00, 0x00, 0x9c, 0x6e, 0x00, 0xad, 0x00, 0xb1, 0x00, 0xa2, 0x00, 0x3a,
  0x00, 0x00, 0x3d, 0xb2, 0x00, 0x4d, 0x3c, 0x4c, 0x00, 0x00, 0x60, 0x00,
  0xa6, 0xa6, 0x00, 0x40, 0x00, 0x00, 0x00, 0x38, 0x51, 0x00, 0x00, 0xa3,
  0x00, 0x00, 0x4f, 0x00, 0xc6, 0x00, 0x9e, 0x36, 0x00, 0x00, 0x45, 0xc4,
  0xb9, 0xb3, 0x00, 0x00, 0x00, 0x00, 0x00, 0x5c, 0x00, 0x00, 0x55, 0x00,
  0x4b, 0xcb, 0x00, 0x00, 0xb7, 0x00, 0x00, 0x00, 0xc8, 0x00, 0x4d, 0x00,
  0x00, 0xba, 0xa2, 0xb8, 0x99, 0x5d, 0x00, 0x4a, 0x00, 0x3e, 0x55, 0x00,
  0x00, 0x00, 0xb4, 0x00, 0x67, 0x00, 0x78, 0xb9, 0x00, 0x00, 0x00, 0x00,
  0x00, 0x00, 0x00, 0x4c, 0x00, 0x42, 0xa2, 0x45, 0x00, 0x00, 0x00, 0x00,
  0x39, 0x00, 0x50, 0x92, 0xbd, 0x00, 0x47, 0x54, 0x00, 0xc5, 0x00, 0x00,
  0x00, 0x99, 0x00, 0xad, 0x00, 0x9c, 0x00, 0x00, 0x00, 0x4a, 0x4c, 0x00,
  0x00, 0x5b, 0x00, 0x00, 0x00, 0x00, 0xb2, 0xa9, 0xc3, 0x00, 0x00, 0xb7,
  0x94, 0x00, 0x00, 0x52, 0x00, 0xc2, 0x00, 0xb4, 0x9a, 0x00, 0xbf, 0x00,
  0xb3, 0x00, 0x83, 0x00, 0xc4, 0x3f, 0x81, 0x00, 0x38, 0x35, 0x36, 0x61,
  0x00, 0x99, 0x8b, 0x00, 0x00, 0x89, 0x00, 0x00, 0xa8, 0x00, 0x46, 0x00,
  0x68, 0xa3, 0xbc, 0x8d, 0x00, 0x4e, 0xc8, 0x00, 0x00, 0x00, 0x00, 0x58,
  0x00, 0xa7, 0xb6, 0x00, 0x00, 0x96, 0xb5, 0x6e, 0x00, 0x00, 0x00, 0x00,
  0xa7, 0x00, 0x46, 0x00, 0xbb, 0xc8, 0x44, 0x00, 0x00, 0x00, 0x00, 0x00,
  0xaa, 0x00, 0x4c, 0x74, 0x41, 0x00, 0x00, 0x9d, 0x00, 0x58, 0x00, 0x00,
  0x00, 0xb3, 0xbf, 0x43, 0x4b, 0x00, 0xac, 0x00, 0x67, 0xc2, 0xc7, 0xa5,
  0x00, 0x6c, 0x00, 0x00, 0x4a, 0xc1, 0x60, 0x00, 0x00, 0x00, 0x00, 0x00,
  0xae, 0x51, 0x00, 0x00, 0x79, 0x43, 0x00, 0x00, 0x00, 0x68, 0x00, 0x00,
  0x00, 0x52, 0xac, 0x00, 0x00, 0x00, 0xb4, 0x00, 0x00, 0x00, 0x00, 0x00,
  0x53, 0x00, 0x4a, 0x36, 0x00, 0x00, 0xc1, 0x00, 0x00, 0x6b, 0x00, 0x36,
  0x87, 0x00, 0x7e, 0x37, 0xb3, 0xc0, 0x36, 0xc0, 0x36, 0x45, 0x38, 0xb4,
  0x52, 0x5d, 0x00, 0x00, 0x00, 0x00, 0x00, 0x7a, 0x00, 0x00, 0x44, 0x00,
  0x00, 0xc5, 0x66, 0x35, 0xa7, 0x00, 0x42, 0xb5, 0x00, 0x6f, 0x40, 0x00,
  0xc7, 0x46, 0x00, 0x4b, 0x47, 0x00, 0x41, 0x7c, 0x00, 0x00, 0x44, 0x76,
  0x3b, 0x7a, 0x43, 0x00, 0xa4, 0x40, 0x00, 0x61, 0x00, 0x36, 0x52, 0x00,
  0x00, 0x00, 0x00, 0x00, 0xb3, 0x00, 0x00, 0xb2, 0x00, 0x46, 0x00, 0x00,
  0x00, 0x44, 0x00, 0x00, 0x00, 0x51, 0x5c, 0xb9, 0x4f, 0x00, 0x52, 0x00,
  0x00, 0x00, 0x00, 0x4f, 0x00, 0x00, 0x00, 0x5c, 0xaa, 0x00, 0x00, 0x00,
  0x00, 0x4f, 0x00, 0x00, 0x00, 0x61, 0x36, 0x6b, 0x00, 0x46, 0x55, 0x00,
  0x00, 0x5a, 0x00, 0x68, 0x00, 0x00, 0xbd, 0x00, 0x48, 0x00, 0x00, 0x00,
  0xca, 0x00, 0x42, 0xb0, 0x3e, 0x00, 0x63, 0x6a, 0xb0, 0xc8, 0x00, 0x39,
  0x49, 0x00, 0x00, 0x75, 0x00, 0xba, 0x00, 0x67, 0x00, 0xb5, 0x71, 0xb5,
  0x3f, 0x00, 0xa7, 0x00, 0x00, 0x54, 0x00, 0x00, 0x7c, 0x86, 0x76, 0x00,
  0x90, 0xc0, 0x00, 0x35, 0x00, 0x00, 0x00, 0x00, 0xc2, 0x00, 0x00, 0x00,
  0x56, 0x00, 0x00, 0x54, 0x00, 0x00, 0xad, 0x43, 0x60, 0x54, 0x00, 0x00,
  0xb4, 0x00, 0x00, 0xbc, 0x3b, 0x00, 0x3e, 0xa9, 0x00, 0xc8, 0x9d, 0x49,
  0xa0, 0x00, 0x69, 0x5a, 0x00, 0x00, 0x4a, 0xc6, 0x00, 0x3a, 0x00, 0x20,
  0x1d, 0x28, 0x00, 0xd4, 0x00, 0xdc, 0x00, 0x32, 0x00, 0x3e, 0xcc, 0x30,
  0x00, 0x38, 0x00, 0xcf, 0xd7, 0x00, 0xe4, 0xd2, 0x00, 0x00, 0x00, 0x00,
  0xc3, 0xb7, 0x00, 0x00, 0x00, 0x00, 0xd7, 0x37, 0x2b, 0x32, 0xb3, 0x85,
  0x00, 0xb7, 0xd8, 0x81, 0x00, 0x00, 0x00, 0xde, 0xb6, 0x00, 0x00, 0x24,
  0xcc, 0xc8, 0x00, 0xd0, 0xce, 0x00, 0x00, 0x00, 0xd7, 0xbb, 0x00, 0x2b,
  0x22, 0xb4, 0xe0, 0x00, 0x00, 0xa3, 0x00, 0x00, 0x00, 0xb4, 0x00, 0x00,
  0x00, 0x00, 0xdf, 0x00, 0x00, 0x00, 0x00, 0x00, 0x00, 0x00, 0x00, 0x00,
  0x00, 0xe3, 0x00, 0x55, 0xda, 0x00, 0x00, 0x1f, 0x25, 0x00, 0x31, 0x00,
  0x00, 0xe1, 0x00, 0x00, 0x00, 0x26, 0xb5, 0x00, 0x26, 0x21, 0xe3, 0xe3,
  0x00, 0xce, 0x00, 0x00, 0x4e, 0x00, 0x00, 0xb2, 0xa8, 0xdf, 0xd1, 0x00,
  0x00, 0x00, 0x00, 0x00, 0x00, 0xc5, 0x00, 0x21, 0x00, 0xda, 0x00, 0x00,
  0xe3, 0x00, 0x1f, 0xe2, 0x22, 0x26, 0xde, 0x00, 0x00, 0x00, 0xba, 0xc4,
  0x00, 0x00, 0x00, 0x75, 0x00, 0x00, 0x00, 0x2d, 0x29, 0x00, 0xc9, 0x2b,
  0xdb, 0xb4, 0x00, 0xdc, 0x00, 0x2e, 0xd5, 0xd9, 0x00, 0x2c, 0xc1, 0x00,
  0x00, 0xdf, 0x00, 0x29, 0x00, 0x00, 0x00, 0xc3, 0x29, 0x00, 0x00, 0x00,
  0x6a, 0xc2, 0x00, 0x93, 0x9d, 0xcc, 0x00, 0x2f, 0x2a, 0x00, 0x00, 0xdf,
  0x00, 0x00, 0x21, 0xae, 0xc9, 0x00, 0x37, 0x00, 0x00, 0x40, 0x00, 0xdd,
  0x00, 0x1d, 0x00, 0xc3, 0x00, 0x41, 0x26, 0x2b, 0x00, 0x41, 0x39, 0xca,
  0xd1, 0x00, 0x38, 0x00, 0x00, 0x45, 0x00, 0x1c, 0xc7, 0x00, 0x00, 0xdf,
  0xd9, 0x00, 0x00, 0xcb, 0xd4, 0x00, 0x27, 0x00, 0xab, 0x00, 0xd2, 0xd0,
  0x23, 0xe3, 0x00, 0x00, 0x00, 0x00, 0x1d, 0x00, 0x00, 0x00, 0x00, 0x1f,
  0xcc, 0x28, 0x00, 0x00, 0xdd, 0x2a, 0x00, 0x00, 0x25, 0x00, 0x00, 0x00,
  0x00, 0xe0, 0x1c, 0x00, 0x2f, 0x2c, 0x00, 0xe4, 0x00, 0xb9, 0x00, 0x00,
  0xba, 0x00, 0x3d, 0x46, 0x00, 0x00, 0x28, 0xd2, 0xe3, 0x22, 0x00, 0x00,
  0x00, 0xde, 0x00, 0xc7, 0x2a, 0x21, 0x00, 0x00, 0xc0, 0x24, 0x00, 0x00,
  0x00, 0xdc, 0xe4, 0x00, 0x00, 0x1e, 0x00, 0xda, 0x33, 0x00, 0x00, 0xd0,
  0x35, 0x00, 0xc5, 0xb6, 0x29, 0x00, 0xd8, 0x2b, 0xbb, 0xd3, 0x00, 0x00,
  0x00, 0x00, 0xe1, 0xe0, 0xdb, 0xdd, 0x00, 0xcd, 0xce, 0xca, 0x00, 0x00,
  0xcd, 0x00, 0x00, 0x26, 0xe3, 0x00, 0x00, 0x30, 0x00, 0x00, 0x00, 0x1c,
  0x00, 0xd4, 0xdb, 0xc2, 0x1c, 0xd5, 0x00, 0xd2, 0x00, 0x00, 0x00, 0x00,
  0x1f, 0x00, 0x00, 0x00, 0x00, 0x32, 0x00, 0x00, 0x00, 0xcd, 0x00, 0x23,
  0xcf, 0x30, 0x00, 0xc2, 0x00, 0xb8, 0xc0, 0x00, 0xc2, 0xe3, 0x00, 0x21,
  0x2b, 0x33, 0x00, 0xdd, 0x2c, 0x00, 0xd6, 0xd4, 0x00, 0x26, 0xe3, 0xd5,
  0x1d, 0x00, 0xe4, 0x24, 0xd7, 0xbb, 0xd1, 0x00, 0xbc, 0xd6, 0x00, 0x00,
  0xd1, 0xde, 0xd8, 0x1f, 0x00, 0x1e, 0x00, 0x00, 0xcb, 0x00, 0x00, 0x2d,
  0xd2, 0x00, 0x00, 0x2c, 0x3a, 0x00, 0x00, 0x00, 0x00, 0xce, 0x00, 0xc6,
  0x00, 0xdc, 0xd3, 0x00, 0x00, 0x00, 0x00, 0x00, 0x35, 0x00, 0xe3, 0x2a,
  0x00, 0xc4, 0xb2, 0xd5, 0xcb, 0xe3, 0x00, 0xb1, 0x00, 0x00, 0xb4, 0x00,
  0xb6, 0x00, 0x00, 0x00, 0x00, 0xcb, 0x00, 0x00, 0xd5, 0x00, 0x00, 0xdd,
  0x1f, 0xc7, 0x00, 0x00, 0x00, 0x2f, 0x00, 0x40, 0x00, 0x35, 0x34, 0x22,
  0xdb, 0x00, 0x00, 0x27, 0x00, 0x1d, 0xc6, 0x00, 0x42, 0x33, 0x00, 0x00,
  0xc7, 0x27, 0xe3, 0x00, 0x00, 0x00, 0x00, 0x00, 0x00, 0x3c, 0x00, 0x33,
  0x00, 0x3b, 0x2a, 0x37, 0x00, 0x00, 0x1e, 0x20, 0x21, 0x28, 0x00, 0x00,
  0xd6, 0x3f, 0xcc, 0x2d, 0xd3, 0x00, 0xdd, 0xd1, 0x00, 0x00, 0x00, 0x20,
  0xe2, 0x00, 0x00, 0xe1, 0x00, 0x27, 0x26, 0xa9, 0x2f, 0xd6, 0xdd, 0xe1,
  0x00, 0x00, 0x21, 0x00, 0x34, 0x00, 0x00, 0x3f, 0x00, 0xe0, 0xdf, 0x00,
  0x00, 0x00, 0x1d, 0x00, 0xbf, 0x58, 0x00, 0x00, 0xdb, 0x2e, 0x00, 0x00,
  0x00, 0xd8, 0xb6, 0xbb, 0xc2, 0xd8, 0x00, 0x41, 0x00, 0x00, 0x00, 0x00,
  0x00, 0x2d, 0xc0, 0xcd, 0x00, 0xbd, 0x00, 0x00, 0x00, 0xd9, 0x9f, 0x00,
  0xb9, 0x40, 0xca, 0x00, 0x28, 0x00, 0x00, 0x00, 0x25, 0x00, 0x00, 0x2b,
  0x00, 0x24, 0x23, 0x51, 0x4d, 0x00, 0x4c, 0x28, 0x00, 0x00, 0xd9, 0x00,
  0x00, 0x25, 0x00, 0x00, 0x00, 0x00, 0x30, 0x2c, 0x47, 0x4a, 0x00, 0x3f,
  0x21, 0x00, 0x00, 0xd6, 0xbb, 0x00, 0xba, 0xd9, 0x2d, 0x00, 0x00, 0x00,
  0x00, 0x30, 0x00, 0x24, 0x00, 0x00, 0x00, 0x00, 0x29, 0xcb, 0x00, 0x00,
  0x3b, 0x3a, 0x2d, 0x50, 0x00, 0x00, 0x00, 0x00, 0x00, 0x00, 0x00, 0xb1,
  0x30, 0x00, 0x00, 0xab, 0x47, 0x00, 0xd2, 0x00, 0xa9, 0x2a, 0x00, 0x00,
  0x00, 0xd5, 0x00, 0x00, 0x00, 0x81, 0x00, 0x44, 0x27, 0x00, 0x00, 0x00,
  0xc5, 0x29, 0xdd, 0x00, 0x56, 0x24, 0x00, 0x00, 0xdf, 0x00, 0x00, 0x4d,
  0x00, 0x28, 0x00, 0xb6, 0x00, 0x00, 0x3f, 0x00, 0xb8, 0x00, 0x00, 0x42,
  0x00, 0xdb, 0x39, 0x00, 0x00, 0x46, 0xc6, 0x00, 0x00, 0x00, 0x00, 0x3a,
  0x26, 0x00, 0x00, 0x00, 0xe1, 0x36, 0x00, 0x00, 0x4d, 0xce, 0x00, 0x00,
  0x00, 0x27, 0xcd, 0x44, 0x00, 0x00, 0x00, 0x00, 0xd2, 0x37, 0x00, 0x00,
  0xaa, 0xe0, 0x00, 0x00, 0x00, 0x00, 0xd6, 0xdc, 0xa7, 0x00, 0xb7, 0x00,
  0xcf, 0x00, 0x00, 0xe0, 0x50, 0x22, 0x00, 0x00, 0xb8, 0x00, 0x5c, 0x00,
  0xe0, 0x00, 0xdc, 0x00, 0xb3, 0x3a, 0x2a, 0x29, 0x00, 0x00, 0x1f, 0x21,
  0xdf, 0xcf, 0x46, 0xdc, 0x00, 0x00, 0x00, 0x00, 0x00, 0x00, 0xcb, 0x00,
  0xbe, 0xcf, 0x24, 0x00, 0x00, 0x00, 0x00, 0x44, 0x2f, 0x00, 0x00, 0x00,
  0x00, 0x00, 0x33, 0x30, 0x44, 0xad, 0x3c, 0x00, 0x42, 0x00, 0x00, 0xce,
  0x2a, 0x28, 0x00, 0x00, 0x2a, 0x00, 0xde, 0x00, 0x00, 0xce, 0x35, 0x00,
  0x00, 0xc5, 0x00, 0xd6, 0x25, 0xde, 0x00, 0xc8, 0x00, 0x00, 0x00, 0xe1,
  0x00, 0xd6, 0xc5, 0xbb, 0x00, 0x00, 0xd4, 0x00, 0x00, 0x00, 0x23, 0x00,
  0x00, 0xc5, 0xd1, 0x00, 0x00, 0x00, 0x00, 0xde, 0x00, 0x36, 0x00, 0x2b,
  0xdb, 0x22, 0x47, 0x3d, 0xde, 0x00, 0x00, 0x00, 0x00, 0x1f, 0x23, 0xc6,
  0x22, 0x34, 0x3f, 0x00, 0x44, 0x27, 0x24, 0x34, 0x26, 0x37, 0x00, 0xcd,
  0x00, 0x00, 0x00, 0x3e, 0xd8, 0xd7, 0xdb, 0x00, 0x27, 0x2b, 0x00, 0x00,
  0x3d, 0x00, 0x24, 0x00, 0xc4, 0xd1, 0x00, 0x00, 0x3c, 0xad, 0x00, 0xc7,
  0x00, 0xc1, 0x30, 0x22, 0x39, 0x00, 0x00, 0x00, 0x32, 0x2d, 0xbe, 0x27,
  0x00, 0xdd, 0x2b, 0xe0, 0x3c, 0x00, 0x34, 0x00, 0x00, 0x00, 0x00, 0x40,
  0x55, 0x00, 0x00, 0x00, 0xda, 0x00, 0x00, 0x00, 0x3f, 0x00, 0x00, 0x00,
  0x27, 0x20, 0x00, 0x00, 0x00, 0xd8, 0x20, 0x36, 0x00, 0xda, 0x22, 0x00,
  0x37, 0x3a, 0x00, 0x00, 0xde, 0x00, 0x00, 0x45, 0x3b, 0x00, 0x00, 0x00,
  0x34, 0x00, 0x00, 0x00, 0x38, 0x00, 0x00, 0x20, 0xdd, 0x00, 0x30, 0x00,
  0x00, 0x37, 0x00, 0x00, 0x00, 0x00, 0xda, 0xd9, 0x00, 0x00, 0x00, 0x29,
  0x30, 0x00, 0x31, 0x00, 0x00, 0x00, 0xde, 0xcc, 0x21, 0xc4, 0xcd, 0x00,
  0x38, 0x00, 0xaa, 0x00, 0x00, 0x3e, 0x35, 0xd6, 0x00, 0x00, 0xdb, 0x3c,
  0x00, 0xd9, 0x42, 0x00, 0x00, 0xde, 0x4f, 0x00, 0x00, 0x2c, 0xdc, 0x00,
  0x3d, 0x00, 0x00, 0x44, 0x00, 0x29, 0x1f, 0x30, 0x00, 0xe1, 0x00, 0x3a,
  0x2e, 0x00, 0x00, 0xdd, 0xd7, 0x2a, 0x31, 0x00, 0xda, 0x00, 0x00, 0x42,
  0x00, 0xd9, 0x46, 0x2c, 0x22, 0x00, 0x00, 0x55, 0x51, 0x00, 0x29, 0x00,
  0x29, 0x40, 0x00, 0x00, 0x22, 0x2e, 0x00, 0x00, 0x31, 0x00, 0x47, 0x00,
  0x3c, 0xdb, 0x00, 0x00, 0xc6, 0x2c, 0x5d, 0x1f, 0x00, 0x44, 0x51, 0x39,
  0x00, 0x00, 0x00, 0xd5, 0x3d, 0x00, 0x39, 0x29, 0xd9, 0x3a, 0xd6, 0x00,
  0x23, 0x00, 0x00, 0x41, 0x51, 0x00, 0x00, 0x47, 0x00, 0xcc, 0xd7, 0x00,
  0x00, 0x00, 0x00, 0x00, 0x00, 0x00, 0xb4, 0x00, 0x00, 0x4a, 0x59, 0x3b,
  0x35, 0xb4, 0x00, 0xa1, 0x00, 0x00, 0xab, 0x54, 0x00, 0x4e, 0xb2, 0x5e,
  0x00, 0x39, 0x41, 0x00, 0x94, 0x00, 0xc7, 0xa0, 0x50, 0x00, 0x9c, 0x00,
  0x51, 0xbe, 0x00, 0x00, 0x00, 0x00, 0xbe, 0xa1, 0x3f, 0x00, 0xac, 0x00,
  0x00, 0x00, 0xc1, 0x61, 0x00, 0x59, 0x00, 0x00, 0xb2, 0x00, 0x00, 0x00,
  0xa2, 0x00, 0x00, 0x4a, 0x74, 0x00, 0x00, 0x00, 0x5a, 0x00, 0x00, 0x41,
  0xc7, 0x00, 0xbe, 0x00, 0x48, 0x6e, 0x34, 0x00, 0x00, 0x52, 0xc0, 0x00,
  0x00, 0xcb, 0x00, 0x00, 0x52, 0x4e, 0x3c, 0x46, 0x00, 0x68, 0x00, 0x3f,
  0x00, 0xa7, 0x39, 0x00, 0x00, 0x34, 0xc9, 0xa1, 0xba, 0x00, 0x40, 0xb2,
  0x99, 0x00, 0x9c, 0xa0, 0xbf, 0x00, 0x9f, 0x00, 0x00, 0x58, 0xb0, 0x45,
  0x57, 0x00, 0x00, 0x4a, 0x00, 0x43, 0x42, 0x00, 0x00, 0xb5, 0x00, 0x00,
  0x40, 0x00, 0x4b, 0x00, 0x58, 0x58, 0x00, 0x3c, 0x00, 0xa9, 0x00, 0x6f,
  0xb5, 0x37, 0x00, 0xc1, 0x3e, 0x00, 0x4d, 0x00, 0x3c, 0x76, 0x00, 0x7b,
  0x00, 0x76, 0x00, 0x58, 0x00, 0x00, 0xc7, 0x9f, 0x00, 0x00, 0x9c, 0xca,
  0x00, 0x00, 0x00, 0x00, 0x00, 0x00, 0x00, 0x00, 0x00, 0x00, 0x9e, 0x00,
  0x00, 0x00, 0x00, 0xbf, 0x5d, 0xc8, 0xc1, 0x00, 0x00, 0x00, 0xba, 0xa2,
  0xc2, 0x00, 0x00, 0x00, 0xb5, 0x64, 0xcb, 0x00, 0x00, 0x98, 0x00, 0x00,
  0x00, 0xa6, 0x63, 0x00, 0xb6, 0x45, 0x00, 0x5c, 0x00, 0x00, 0xc4, 0x00,
  0xc4, 0xb3, 0x00, 0xb8, 0xb0, 0x00, 0x50, 0xa6, 0x00, 0x00, 0x00, 0xaa,
  0x00, 0x00, 0xc5, 0x00, 0xbc, 0x00, 0x53, 0xb2, 0x00, 0x00, 0xae, 0x38,
  0x00, 0xb0, 0x96, 0xcb, 0x9e, 0x40, 0x5b, 0x44, 0x00, 0x00, 0x00, 0x4c,
  0x00, 0x9a, 0x00, 0x46, 0x00, 0xb1, 0x54, 0xc3, 0x6f, 0xc3, 0x00, 0x75,
  0x39, 0x00, 0x62, 0xb0, 0x3d, 0x3a, 0x00, 0xae, 0x4f, 0x00, 0x00, 0x00,
  0x00, 0x00, 0x55, 0xca, 0xa6, 0x45, 0xb1, 0x39, 0x59, 0x5c, 0x00, 0x00,
  0x61, 0x00, 0xb4, 0x00, 0x00, 0x00, 0x6b, 0xc6, 0x72, 0x00, 0x00, 0x00,
  0x00, 0x00, 0xb1, 0xb8, 0x00, 0x56, 0x00, 0x66, 0x00, 0xc4, 0x00, 0x49,
  0x56, 0x39, 0x00, 0x00, 0x00, 0x36, 0xcb, 0x00, 0x00, 0x3a, 0xbf, 0x52,
  0x00, 0x34, 0x61, 0x7a, 0x00, 0x72, 0x42, 0x52, 0xa6, 0x66, 0x00, 0x45,
  0x63, 0x00, 0xa9, 0x00, 0x3a, 0x00, 0x00, 0x00, 0x00, 0x00, 0x00, 0x00,
  0x00, 0x00, 0x00, 0x66, 0x00, 0x59, 0xc4, 0xc2, 0x45, 0xb9, 0x92, 0x00,
  0x00, 0x00, 0x00, 0x98, 0x00, 0x00, 0xbf, 0xc0, 0x00, 0xb5, 0x34, 0x00,
  0x00, 0xbf, 0x3d, 0xbc, 0x00, 0x44, 0x00, 0x00, 0x00, 0x00, 0x60, 0xaa,
  0x00, 0x00, 0x47, 0x00, 0x6f, 0xaf, 0xa1, 0x00, 0x00, 0x00, 0x63, 0xb1,
  0x00, 0x00, 0xac, 0x51, 0x00, 0x60, 0x00, 0xca, 0x00, 0x00, 0x3b, 0x5b,
  0x4f, 0x00, 0x00, 0x66, 0x3b, 0x00, 0x4f, 0x5b, 0xa2, 0x00, 0xa4, 0x56,
  0x00, 0x00, 0x00, 0x00, 0x00, 0x4a, 0x00, 0x00, 0x63, 0x00, 0x00, 0x00,
  0x00, 0x35, 0x00, 0xa0, 0xa0, 0x00, 0x00, 0x00, 0xa7, 0x59, 0x00, 0x62,
  0x00, 0xae, 0x00, 0x67, 0x6b, 0x96, 0x00, 0x00, 0xaa, 0xbe, 0x00, 0xbb,
  0x4f, 0x48, 0xc8, 0xc1, 0x00, 0x67, 0xb9, 0x63, 0x00, 0x4f, 0x4f, 0x00,
  0xca, 0x00, 0x00, 0x63, 0x00, 0x40, 0x00, 0x4c, 0x00, 0xc4, 0x00, 0x00,
  0x00, 0x00, 0xc3, 0x00, 0xae, 0x47, 0x00, 0xcc, 0x00, 0x6b, 0x46, 0x00,
  0x57, 0x00, 0x4a, 0x00, 0x5f, 0xb9, 0x56, 0xaa, 0x00, 0x00, 0x00, 0x5b,
  0x00, 0x6e, 0x95, 0x00, 0x00, 0xb6, 0x5a, 0xb0, 0x3c, 0xc5, 0xa7, 0xbd,
  0x42, 0x46, 0x00, 0xb4, 0x00, 0x3a, 0x66, 0x00, 0xac, 0x00, 0x4a, 0x00,
  0xc7, 0x49, 0x00, 0xa7, 0x00, 0x00, 0x5d, 0x56, 0x7f, 0xbd, 0x3a, 0x00,
  0xa7, 0xb7, 0x00, 0x00, 0x00, 0x00, 0x00, 0x5f, 0xb6, 0x00, 0x00, 0x00,
  0x3c, 0x00, 0x00, 0x00, 0xbd, 0xb4, 0x4a, 0x00, 0x36, 0x00, 0x00, 0xb2,
  0xb7, 0xbc, 0xcc, 0xdd, 0x23, 0x00, 0xdc, 0x00, 0xe0, 0xda, 0x00, 0x30,
  0x00, 0xcc, 0x28, 0x36, 0x00, 0x00, 0x42, 0x45, 0xc5, 0x00, 0x00, 0x33,
  0x00, 0x00, 0x00, 0x00, 0xe0, 0xd7, 0xda, 0x4a, 0x00, 0x00, 0x00, 0x00,
  0xd6, 0x3d, 0xc2, 0x00, 0xc4, 0x00, 0xb7, 0xa7, 0x00, 0x00, 0x00, 0x24,
  0x00, 0x27, 0x00, 0xcd, 0x00, 0x51, 0xa5, 0xb5, 0x50, 0x30, 0x00, 0x00,
  0x20, 0x2c, 0x31, 0x55, 0x00, 0x00, 0xc3, 0x00, 0x00, 0x2e, 0x00, 0x3f,
  0x00, 0x3b, 0x00, 0xcb, 0xd7, 0x00, 0xce, 0x00, 0xdd, 0xc2, 0x00, 0x22,
  0x00, 0xce, 0xbf, 0xda, 0x00, 0x25, 0xde, 0x00, 0xd9, 0xae, 0x00, 0x45,
  0xb2, 0x00, 0x30, 0x00, 0x00, 0x23, 0x00, 0xd0, 0x00, 0xdd, 0x00, 0x00,
  0x00, 0xc5, 0x2f, 0x39, 0x00, 0xc3, 0xba, 0x26, 0x00, 0x00, 0x00, 0x91,
  0x28, 0x00, 0x00, 0x2b, 0x00, 0x00, 0x43, 0x00, 0x00, 0x20, 0x26, 0xd3,
  0x00, 0xd7, 0xbd, 0x00, 0xc7, 0x00, 0x26, 0xd9, 0x00, 0xc1, 0x00, 0x00,
  0x5b, 0xde, 0x00, 0x35, 0x33, 0xd5, 0xdc, 0x00, 0x00, 0xb1, 0x00, 0xcf,
  0x24, 0x00, 0x00, 0x00, 0x3d, 0x00, 0x00, 0x20, 0x00, 0x00, 0xc4, 0x45,
  0x2e, 0xe0, 0x48, 0xcb, 0xd2, 0x00, 0x2e, 0x21, 0x00, 0x00, 0x00, 0x35,
  0x00, 0x00, 0xc4, 0xba, 0x00, 0xd6, 0x00, 0x21, 0x00, 0xb9, 0x42, 0x00,
  0x2b, 0x00, 0x46, 0x39, 0x00, 0xcf, 0xae, 0x81, 0x00, 0x00, 0x00, 0x00,
  0x21, 0xde, 0x3d, 0x00, 0xcd, 0xb8, 0x00, 0x31, 0x00, 0x00, 0x00, 0x00,
  0x21, 0x00, 0x2c, 0x00, 0x00, 0x00, 0xc8, 0x00, 0x00, 0x00, 0x00, 0x00,
  0x00, 0xb7, 0x00, 0x00, 0x00, 0x00, 0x9c, 0xd7, 0x3a, 0x37, 0xcc, 0x35,
  0x00, 0x00, 0xd7, 0x00, 0xe0, 0xde, 0x00, 0xc3, 0x00, 0x00, 0x00, 0x00,
  0x23, 0x00, 0x28, 0x2b, 0x28, 0x2f, 0x00, 0x00, 0xce, 0xd0, 0x1f, 0xd2,
  0xcf, 0x00, 0x00, 0x00, 0x00, 0x00, 0x00, 0x00, 0x26, 0xd9, 0x00, 0x48,
  0x00, 0xdc, 0xdb, 0x00, 0x00, 0x00, 0x00, 0x35, 0x00, 0x00, 0xcf, 0x20,
  0xc7, 0xc5, 0x25, 0x00, 0x00, 0x4e, 0x00, 0x00, 0x92, 0x3f, 0x00, 0x00,
  0x00, 0x00, 0x00, 0x00, 0x00, 0xcf, 0x39, 0x00, 0x28, 0x31, 0x39, 0x39,
  0x00, 0x45, 0x00, 0x40, 0x00, 0x4f, 0x00, 0x2b, 0xdb, 0x00, 0x37, 0x26,
  0x33, 0x3e, 0x00, 0x22, 0x2c, 0x32, 0x3c, 0x00, 0x00, 0x00, 0x00, 0x00,
  0x21, 0x00, 0x44, 0xdc, 0xc4, 0x00, 0xd8, 0x2e, 0x00, 0xd0, 0x00, 0x00,
  0xdc, 0x00, 0x00, 0x21, 0x00, 0x00, 0x00, 0x23, 0x00, 0x00, 0x00, 0x00,
  0x2e, 0xd6, 0x00, 0x00, 0x00, 0x00, 0x00, 0x35, 0x00, 0xba, 0x31, 0xcd,
  0xad, 0x00, 0x2f, 0xa5, 0x00, 0x00, 0xc9, 0x00, 0x00, 0x00, 0xca, 0xd5,
  0x00, 0x00, 0x00, 0x4c, 0x00, 0x35, 0x00, 0xd2, 0xde, 0x00, 0x00, 0xe1,
  0x00, 0x2e, 0x00, 0x2f, 0x20, 0x2b, 0x00, 0xdf, 0xde, 0x00, 0xd7, 0x00,
  0x3a, 0x39, 0x2c, 0x00, 0xd7, 0x00, 0xd1, 0x00, 0x2c, 0x00, 0x00, 0x00,
  0x00, 0x00, 0x00, 0x00, 0x41, 0x00, 0xd3, 0x00, 0x21, 0x00, 0xd0, 0xbe,
  0xd6, 0x3a, 0x00, 0x2a, 0x00, 0xd8, 0x41, 0x00, 0x00, 0x2e, 0x3b, 0x3d,
  0xc8, 0x2f, 0x24, 0x34, 0xd5, 0x00, 0x24, 0xac, 0xdd, 0x00, 0x00, 0x00,
  0xcf, 0x00, 0xcb, 0x26, 0x27, 0x3c, 0x00, 0x56, 0x00, 0x00, 0x00, 0x00,
  0x00, 0x00, 0x5e, 0x00, 0x4a, 0x25, 0x00, 0x00, 0x00, 0x21, 0x4a, 0x2a,
  0x41, 0x37, 0x00, 0x00, 0x2d, 0x00, 0x23, 0xdf, 0x00, 0x00, 0x00, 0x31,
  0x00, 0x00, 0x49, 0x3e, 0x00, 0x42, 0x4b, 0x00, 0x51, 0x48, 0xd7, 0x26,
  0x3b, 0x00, 0x22, 0xd6, 0x43, 0x37, 0x00, 0x00, 0x49, 0x42, 0x37, 0x00,
  0x20, 0xcd, 0xd5, 0xbd, 0x00, 0xbf, 0x2c, 0x00, 0x00, 0x00, 0x00, 0x00,
  0xbb, 0x00, 0xdd, 0xdc, 0xe1, 0x1f, 0x00, 0x41, 0x00, 0x00, 0xcf, 0x00,
  0x00, 0x00, 0x31, 0x00, 0x23, 0x00, 0x00, 0x00, 0xdd, 0x00, 0x00, 0x00,
  0x00, 0x36, 0x00, 0x00, 0x00, 0x00, 0x00, 0x00, 0x00, 0x00, 0x00, 0xd0,
  0x00, 0x00, 0x00, 0xbf, 0x00, 0x00, 0x00, 0x00, 0x00, 0x38, 0x00, 0xbe,
  0xdc, 0x00, 0xd1, 0x00, 0xb9, 0x00, 0x36, 0xdb, 0x00, 0x00, 0x00, 0x00,
  0x00, 0xb9, 0x5c, 0x00, 0x00, 0x00, 0x35, 0x00, 0x00, 0x00, 0x00, 0x9e,
  0xdc, 0xab, 0xd4, 0x00, 0x00, 0xc1, 0x00, 0xc2, 0x00, 0xd5, 0xc2, 0x00,
  0x53, 0xc4, 0x54, 0x00, 0xcf, 0xc2, 0x00, 0x00, 0x29, 0xdc, 0x00, 0x00,
  0x43, 0x00, 0x00, 0x85, 0x6b, 0xbe, 0x00, 0x00, 0x3f, 0x00, 0x2a, 0xc4,
  0x24, 0x00, 0x00, 0x24, 0x00, 0x00, 0x00, 0x00, 0xcd, 0xce, 0x32, 0xcd,
  0x38, 0x00, 0x29, 0x00, 0x39, 0x00, 0x00, 0x00, 0x00, 0x26, 0x00, 0xb7,
  0xd8, 0x00, 0xcd, 0x23, 0x2c, 0x00, 0x00, 0x00, 0xd9, 0x00, 0xc0, 0x24,
  0x00, 0xbf, 0xc3, 0xc6, 0x00, 0xda, 0x00, 0xa2, 0x00, 0x81, 0x00, 0x00,
  0x00, 0x00, 0xc2, 0x35, 0x00, 0x00, 0x00, 0x00, 0xbf, 0x00, 0xb6, 0x31,
  0x35, 0x51, 0x00, 0xc1, 0x37, 0x00, 0xcf, 0x00, 0x40, 0x27, 0x00, 0xd2,
  0x00, 0xc8, 0x00, 0x33, 0x00, 0x00, 0x00, 0x00, 0x3d, 0x00, 0x00, 0xc5,
  0x42, 0x2f, 0x4a, 0x00, 0xd9, 0x00, 0x00, 0x27, 0xb7, 0xcd, 0x00, 0xda,
  0xa5, 0x43, 0xd8, 0x4b, 0x00, 0xcf, 0x00, 0x00, 0x00, 0x00, 0xc8, 0x26,
  0x00, 0x00, 0x3b, 0x33, 0x69, 0x00, 0x3a, 0xd0, 0x00, 0x00, 0x00, 0xce,
  0x00, 0x29, 0x38, 0x00, 0x00, 0x2e, 0x39, 0x00, 0x00, 0x00, 0x00, 0x00,
  0x2b, 0x00, 0x5c, 0x00, 0x00, 0x00, 0x00, 0x00, 0x00, 0x34, 0x00, 0x00,
  0x24, 0x2c, 0x00, 0x59, 0x25, 0x00, 0x00, 0x00, 0x00, 0x00, 0x00, 0x00,
  0xc4, 0xd1, 0x00, 0x37, 0x53, 0x00, 0x00, 0x00, 0x2e, 0x00, 0xda, 0xd5,
  0x00, 0x00, 0x00, 0xda, 0x00, 0x27, 0x00, 0x00, 0x00, 0x9a, 0xd5, 0x00,
  0xc3, 0x00, 0x00, 0xcf, 0x00, 0x00, 0x00, 0x3a, 0x00, 0xd9, 0xdc, 0x00,
  0x00, 0x00, 0x00, 0x00, 0xbe, 0x30, 0xcf, 0x00, 0x27, 0x30, 0x38, 0x29,
  0x00, 0xae, 0x2b, 0x00, 0x00, 0x00, 0x00, 0x00, 0x23, 0x00, 0x00, 0x00,
  0x00, 0xda, 0x00, 0x00, 0x00, 0x00, 0x4e, 0x49, 0xc3, 0xd7, 0x29, 0xd6,
  0x00, 0xc3, 0x00, 0x00, 0xcb, 0x00, 0x00, 0x00, 0x00, 0x00, 0x00, 0xd6,
  0x3f, 0x00, 0x39, 0x00, 0x00, 0x00, 0x00, 0xba, 0xc3, 0xba, 0x00, 0x34,
  0xcd, 0x00, 0x00, 0x2c, 0x00, 0xcc, 0x33, 0xcb, 0x00, 0xb4, 0x00, 0x34,
  0x00, 0x00, 0x00, 0x00, 0xd9, 0x00, 0x00, 0x38, 0x3d, 0x3b, 0x37, 0x42,
  0x31, 0x00, 0x31, 0x00, 0x00, 0x30, 0xc0, 0x2e, 0x00, 0x00, 0xc6, 0x00,
  0xd6, 0x25, 0x00, 0xd7, 0x33, 0x4e, 0x00, 0xd6, 0x25, 0x31, 0x00, 0xcc,
  0x00, 0x62, 0x00, 0x24, 0x00, 0x00, 0x00, 0x3d, 0xd4, 0x30, 0x00, 0x00,
  0xd4, 0xbb, 0xbd, 0xd6, 0xbb, 0xdb, 0x33, 0x00, 0x00, 0x00, 0x00, 0x27,
  0xac, 0x00, 0x2b, 0xdc, 0x00, 0x29, 0x00, 0xcd, 0xdc, 0xc7, 0x00, 0x00,
  0x33, 0x00, 0x31, 0xc9, 0xce, 0x00, 0x00, 0x00, 0x00, 0x2f, 0x00, 0x00,
  0x00, 0x00, 0x00, 0xd6, 0xd2, 0x3b, 0xc4, 0x00, 0x29, 0x00, 0x00, 0xb7,
  0x24, 0xdb, 0xcd, 0xb5, 0x00, 0x00, 0x00, 0x00, 0x2d, 0x34, 0x4f, 0xce,
  0x60, 0x33, 0xc8, 0xbd, 0x00, 0xce, 0x00, 0x00, 0x32, 0x00, 0x54, 0x00,
  0xd0, 0xcc, 0xc9, 0xc9, 0x3d, 0x00, 0xc8, 0xc7, 0xc7, 0xcf, 0x00, 0xc4,
  0x00, 0x00, 0x00, 0x30, 0x00, 0x00, 0x00, 0x3b, 0xd5, 0xc7, 0x00, 0x00,
  0xce, 0xcc, 0xcc, 0x00, 0x00, 0x32, 0xc5, 0x00, 0x36, 0x00, 0xbb, 0x00,
  0x00, 0x00, 0x00, 0x3c, 0xc7, 0xc5, 0x00, 0x2a, 0x00, 0x00, 0x00, 0x00,
  0xb8, 0xd5, 0xc0, 0x00, 0x00, 0x00, 0x26, 0x9f, 0x00, 0x00, 0x00, 0xcc,
  0x39, 0x2a, 0x3f, 0xc1, 0x29, 0xd1, 0x00, 0x26, 0x3d, 0x00, 0x00, 0x00,
  0x00, 0xd4, 0x3c, 0x30, 0x00, 0x00, 0x5a, 0x00, 0x00, 0xd7, 0x29, 0x00,
  0xbe, 0x00, 0x00, 0x00, 0x35, 0x00, 0x00, 0x00, 0x2d, 0x48, 0x00, 0x00,
  0x3d, 0x00, 0x00, 0xb6, 0x00, 0x00, 0x45, 0xd5, 0xd5, 0x00, 0x37, 0x00,
  0x00, 0x32, 0x00, 0xd4, 0x00, 0xcf, 0x00, 0xce, 0x2a, 0x00, 0x00, 0x00,
  0x36, 0x00, 0xd5, 0x00, 0x00, 0x00, 0x00, 0x00, 0x00, 0x2d, 0x29, 0xd5,
  0x00, 0x3e, 0x00, 0x00, 0x00, 0xbb, 0x00, 0x28, 0x00, 0x3c, 0xc9, 0xc7,
  0x00, 0xca, 0x48, 0x00, 0x00, 0x00, 0x00, 0x00, 0xc7, 0x63, 0x00, 0xd8,
  0x00, 0x00, 0x27, 0x00, 0x00, 0x7f, 0x2f, 0x00, 0x00, 0x00, 0x39, 0x00,
  0xcf, 0x00, 0x00, 0x2f, 0x00, 0xbe, 0x00, 0x00, 0x44, 0x00, 0x31, 0x00,
  0x00, 0x00, 0xce, 0xd7, 0x00, 0x00, 0x00, 0x00, 0x48, 0x40, 0xc4, 0xc5,
  0x00, 0x42, 0x00, 0x00, 0x39, 0x00, 0xb6, 0x00, 0xd1, 0x46, 0x00, 0x00,
  0x00, 0x2d, 0xcd, 0xd2, 0x26, 0x00, 0xbf, 0x27, 0xcf, 0x00, 0x35, 0xc6,
  0xd9, 0xb0, 0x4a, 0x39, 0x00, 0x00, 0x00, 0xd2, 0xbb, 0x00, 0xc1, 0xc5,
  0xd3, 0x4b, 0x45, 0x35, 0x3d, 0x00, 0x00, 0x43, 0xa5, 0xb2, 0xca, 0x00,
  0x00, 0x00, 0xbb, 0xc9, 0x00, 0xae, 0xbd, 0xc4, 0x00, 0x00, 0xc1, 0x00,
  0x00, 0x00, 0x32, 0x00, 0x2d, 0x00, 0xcc, 0x27, 0x00, 0x00, 0x48, 0x00,
  0x00, 0x00, 0x00, 0x00, 0x00, 0x00, 0x00, 0x47, 0x3f, 0xc4, 0x00, 0xd9,
  0xd2, 0x00, 0x00, 0x00, 0x00, 0x00, 0x31, 0x4a, 0x00, 0x00, 0x00, 0x27,
  0x00, 0x3f, 0x51, 0x00, 0x00, 0x00, 0x00, 0x00, 0x00, 0x00, 0x00, 0x00,
  0xc1, 0x00, 0x00, 0x32, 0x00, 0x00, 0x00, 0x3d, 0x43, 0xc4, 0x3d, 0x00,
  0xbd, 0x2a, 0x00, 0x00, 0xba, 0x00, 0xd6, 0x00, 0x00, 0x35, 0x2e, 0xcc,
  0x00, 0xd5, 0xda, 0x00, 0x00, 0x00, 0x34, 0xc2, 0xd3, 0x00, 0x00, 0xcf,
  0xd1, 0x00, 0x00, 0x4e, 0x00, 0x49, 0x00, 0x29, 0x00, 0xd0, 0x53, 0x26,
  0x00, 0x00, 0x00, 0x00, 0x00, 0x00, 0x00, 0x00, 0x3d, 0x00, 0x00, 0x00,
  0x44, 0x00, 0x3d, 0x2d, 0xca, 0x00, 0x42, 0x00, 0x39, 0xc1, 0x00, 0x28,
  0x29, 0xb5, 0x00, 0x00, 0x00, 0x3b, 0xc9, 0x41, 0x00, 0x00, 0x00, 0xcb,
  0x39, 0x00, 0xbf, 0x00, 0x2b, 0x34, 0x00, 0x00, 0x00, 0x00, 0x32, 0x00,
  0x3c, 0xc8, 0x00, 0x00, 0x00, 0x00, 0x00, 0x32, 0x00, 0x00, 0x00, 0x00,
  0x00, 0x00, 0x00, 0x32, 0x00, 0x00, 0x46, 0x00, 0xda, 0x00, 0x54, 0x36,
  0xbd, 0x00, 0x39, 0x32, 0x00, 0xcb, 0x00, 0x00, 0x2e, 0x00, 0x45, 0x00,
  0xd0, 0x00, 0x00, 0x00, 0x3e, 0xcf, 0x00, 0x00, 0x00, 0x00, 0x00, 0x00,
  0x5c, 0xbf, 0xd6, 0x48, 0xc6, 0x36, 0x33, 0x00, 0x00, 0x2f, 0xd8, 0x4b,
  0x40, 0xd7, 0x00, 0x00, 0x00, 0x37, 0x00, 0x00, 0x38, 0x4d, 0x00, 0x00,
  0x00, 0x00, 0x00, 0x44, 0x00, 0x00, 0x31, 0x00, 0x00, 0x00, 0x00, 0x44,
  0xd5, 0xd5, 0x39, 0xce, 0x00, 0x00, 0x00, 0x00, 0xd4, 0xce, 0xcb, 0x39,
  0xc6, 0x00, 0x00, 0x00, 0xcc, 0x00, 0x00, 0x00, 0xcc, 0x4c, 0x54, 0x42,
  0x00, 0x00, 0x30, 0x00, 0x41, 0x46, 0x00, 0xcf, 0x46, 0x00, 0x48, 0x00,
  0x3a, 0x00, 0x00, 0x42, 0x31, 0x00, 0x00, 0x00, 0x00, 0x00, 0x00, 0x00,
  0xc2, 0xc3, 0xbb, 0xd5, 0x00, 0x2d, 0x00, 0x00, 0x3e, 0x00, 0x00, 0x00,
  0x00, 0x00, 0x00, 0x00, 0x00, 0xd2, 0xd2, 0xd7, 0xd8, 0x00, 0x29, 0xc6,
  0x39, 0x00, 0x5e, 0x00, 0x00, 0x00, 0x00, 0x00, 0x36, 0x26, 0x00, 0x00,
  0x00, 0xd9, 0x00, 0x00, 0x4a, 0x3d, 0x31, 0x00, 0x37, 0xc7, 0x3d, 0x00,
  0x40, 0x00, 0x00, 0x4e, 0x27, 0xd2, 0x49, 0x00, 0x3c, 0x00, 0x39, 0xc7,
  0x00, 0x26, 0x36, 0x35, 0x5f, 0xd9, 0x00, 0x00, 0x5f, 0x00, 0x41, 0x5c,
  0x54, 0x4a, 0x62, 0x00, 0xd4, 0x00, 0x44, 0x00, 0x00, 0x00, 0x34, 0x47,
  0x42, 0x00, 0x00, 0x2c, 0xd1, 0x00, 0x00, 0xc4, 0x00, 0x3a, 0x00, 0x4c,
  0xd2, 0xd2, 0x00, 0x5a, 0x3d, 0x00, 0x3c, 0x00, 0xd3, 0x00, 0x00, 0x00,
  0x00, 0x34, 0x00, 0x00, 0x00, 0x00, 0x00, 0x00, 0x00, 0x00, 0x41, 0x00,
  0x00, 0xc5, 0x00, 0x00, 0xbd, 0x2f, 0x00, 0x00, 0x00, 0x00, 0x00, 0x00,
  0x33, 0x6c, 0x00, 0xb5, 0x00, 0x00, 0x00, 0x00, 0x00, 0x2b, 0x00, 0x00,
  0x00, 0x00, 0x00, 0x00, 0x40, 0xdc, 0x00, 0x00, 0x00, 0x20, 0x27, 0x00,
  0x00, 0xda, 0xdc, 0x20, 0x00, 0x51, 0x2e, 0x00, 0x27, 0x2a, 0x47, 0x35,
  0x00, 0x00, 0x00, 0x21, 0x00, 0xd9, 0x00, 0x00, 0xc6, 0xdc, 0x00, 0x00,
  0x00, 0x54, 0x3a, 0x00, 0x5f, 0xbb, 0x2b, 0x00, 0x00, 0x3f, 0x00, 0x00,
  0x9b, 0x64, 0x00, 0x00, 0x3e, 0x00, 0x6a, 0x29, 0x00, 0x22, 0x00, 0x00,
  0xda, 0x00, 0x00, 0x2c, 0x00, 0x25, 0x00, 0xd9, 0x00, 0x27, 0x00, 0x00,
  0x00, 0x43, 0x00, 0x00, 0xd8, 0xd1, 0x00, 0x00, 0x00, 0x00, 0x00, 0x44,
  0x52, 0x27, 0x3d, 0xdb, 0x00, 0x00, 0x00, 0x00, 0x00, 0x00, 0x00, 0xb7,
  0x00, 0x00, 0xc4, 0x4c, 0x00, 0x28, 0x3c, 0x00, 0x00, 0x00, 0x3f, 0x00,
  0x2b, 0x00, 0x81, 0x5b, 0x00, 0x00, 0x00, 0x00, 0x00, 0x00, 0x00, 0xac,
  0x00, 0x2d, 0x28, 0x00, 0x00, 0x00, 0xc6, 0xc0, 0x2c, 0x00, 0xd3, 0x00,
  0x00, 0x27, 0x3e, 0x2c, 0xdf, 0x2d, 0x00, 0x00, 0x55, 0x00, 0x00, 0xc5,
  0x20, 0x00, 0x00, 0x00, 0x35, 0x00, 0x00, 0x3e, 0x2a, 0xc9, 0x00, 0x00,
  0xe0, 0x00, 0x00, 0x34, 0x00, 0xdc, 0x00, 0x00, 0x00, 0xdc, 0x00, 0x00,
  0x00, 0x00, 0x2a, 0x00, 0xcc, 0xb5, 0x00, 0x00, 0x00, 0xd4, 0xb1, 0xcd,
  0x00, 0x00, 0x00, 0x51, 0x00, 0x00, 0x00, 0x00, 0x00, 0x2b, 0x00, 0xb2,
  0x00, 0x00, 0x00, 0x43, 0xd0, 0x00, 0x00, 0x25, 0xbd, 0x35, 0x00, 0x00,
  0x00, 0x00, 0x00, 0x00, 0x2b, 0xcc, 0x00, 0x00, 0x00, 0xc1, 0x00, 0x00,
  0xdc, 0x26, 0x00, 0x00, 0x00, 0x00, 0x00, 0xbb, 0x00, 0xba, 0xc2, 0x25,
  0x00, 0x00, 0xbf, 0xd0, 0x41, 0x3f, 0x00, 0xbd, 0xb7, 0xd7, 0x00, 0x00,
  0x00, 0x00, 0x00, 0x00, 0xda, 0x00, 0x00, 0xdf, 0xde, 0x00, 0x00, 0xd1,
  0x21, 0xd4, 0x43, 0xd6, 0xca, 0x00, 0xb1, 0xd8, 0xc3, 0x00, 0x00, 0x00,
  0x00, 0xd1, 0x2a, 0xb4, 0x00, 0x00, 0xb2, 0x00, 0x00, 0x29, 0x36, 0xc0,
  0x00, 0x20, 0x00, 0xaf, 0x00, 0xc0, 0x00, 0x00, 0x2a, 0x48, 0x61, 0x55,
  0x00, 0x00, 0x20, 0x00, 0x00, 0x29, 0x00, 0x00, 0xd8, 0x00, 0x00, 0x00,
  0x00, 0x2d, 0x48, 0x00, 0x2b, 0x00, 0x31, 0x36, 0xbe, 0xbd, 0x26, 0xbe,
  0x00, 0x2c, 0x31, 0xbf, 0x00, 0x00, 0x00, 0xd8, 0x00, 0x00, 0xb8, 0xce,
  0x00, 0x32, 0x2f, 0x33, 0xdf, 0x00, 0xd1, 0x00, 0x00, 0xcd, 0x34, 0x2f,
  0x00, 0x24, 0x00, 0x00, 0x00, 0xc1, 0x00, 0x00, 0x00, 0xae, 0xc4, 0x00,
  0xc9, 0xc4, 0xe0, 0xc1, 0xd8, 0xc9, 0xce, 0x22, 0x00, 0x00, 0x9d, 0x00,
  0xd1, 0x00, 0x27, 0xd2, 0x00, 0xce, 0x29, 0xc3, 0x3d, 0x00, 0x00, 0x00,
  0x00, 0xd5, 0x00, 0xd9, 0x00, 0x00, 0x00, 0xbf, 0xb8, 0xd6, 0x2c, 0x00,
  0x00, 0x00, 0x37, 0x00, 0x00, 0x00, 0xb4, 0x28, 0x2b, 0x25, 0xe0, 0x00,
  0x33, 0x00, 0x00, 0x27, 0xd8, 0x00, 0x32, 0xd9, 0x00, 0x21, 0xc4, 0xca,
  0xdb, 0xd4, 0xc8, 0x00, 0x00, 0x00, 0xc9, 0x00, 0xd1, 0x00, 0x00, 0x00,
  0xcd, 0x00, 0x00, 0xc5, 0x00, 0xbc, 0x00, 0xcb, 0x00, 0xd1, 0x38, 0x00,
  0xdb, 0xde, 0x00, 0xd2, 0xc7, 0x2b, 0x00, 0x2c, 0x00, 0x00, 0xc7, 0x00,
  0x00, 0x00, 0x00, 0x00, 0x00, 0xce, 0xd8, 0x00, 0x00, 0x3b, 0x00, 0xc1,
  0xc6, 0x00, 0x00, 0x00, 0x24, 0x00, 0xd6, 0xc3, 0xd3, 0x00, 0xdb, 0x00,
  0x00, 0xdb, 0x00, 0x20, 0xc8, 0xb9, 0x00, 0x00, 0x00, 0x29, 0x00, 0xd7,
  0xd4, 0x00, 0x2f, 0xbb, 0xca, 0x00, 0xc6, 0x00, 0xd2, 0x00, 0x2d, 0x36,
  0x27, 0xbb, 0x00, 0x4d, 0xd1, 0x00, 0x5b, 0x00, 0x00, 0x22, 0xc3, 0x00,
  0xd9, 0x00, 0x3b, 0xca, 0x00, 0x00, 0x26, 0xd4, 0x00, 0x00, 0xb7, 0x00,
  0xc9, 0x00, 0xc9, 0x00, 0xda, 0x4d, 0x3f, 0x00, 0x00, 0x00, 0x46, 0x25,
  0x00, 0x00, 0x00, 0xd2, 0x00, 0x3a, 0xc0, 0x00, 0xd2, 0xd5, 0x00, 0x00,
  0x00, 0x26, 0x00, 0xcd, 0xbf, 0x00, 0x00, 0x25, 0x00, 0x20, 0x00, 0x26,
  0x00, 0x00, 0x00, 0x39, 0x4a, 0xe5, 0x00, 0x2b, 0x00, 0x1c, 0x23, 0x00,
  0x1a, 0x00, 0x00, 0xd2, 0x40, 0x00, 0x00, 0x22, 0x26, 0x00, 0x21, 0xc8,
  0x00, 0x1d, 0x26, 0xca, 0xbb, 0x00, 0x00, 0x00, 0xc9, 0x40, 0x1c, 0x1a,
  0x2d, 0x00, 0x00, 0xc2, 0x00, 0x00, 0x00, 0xe0, 0x00, 0x00, 0x00, 0x00,
  0x00, 0xda, 0x00, 0x00, 0x2d, 0x1b, 0x00, 0x00, 0x00, 0x27, 0xda, 0x1e,
  0x00, 0x00, 0x00, 0x3d, 0x2d, 0x00, 0x00, 0x2a, 0xe1, 0x00, 0xe3, 0xe1,
  0x00, 0xcf, 0x00, 0x00, 0x00, 0x00, 0xda, 0xdb, 0x30, 0x00, 0x00, 0x00,
  0x00, 0xd6, 0xe1, 0x1f, 0x00, 0xe7, 0x2e, 0x3a, 0xe4, 0x41, 0x00, 0xdd,
  0xe2, 0x00, 0x00, 0x28, 0x22, 0x00, 0x00, 0x00, 0x00, 0x00, 0x24, 0xd0,
  0xc2, 0x00, 0x00, 0x32, 0x00, 0xd9, 0x43, 0x21, 0xe6, 0xe2, 0x00, 0x00,
  0x00, 0x00, 0xe6, 0x00, 0x1f, 0x1b, 0x00, 0x00, 0xda, 0x00, 0xe0, 0x2b,
  0xd4, 0xdd, 0x00, 0x00, 0xd7, 0xd8, 0x00, 0xdc, 0x00, 0x00, 0x00, 0x2c,
  0x39, 0x1f, 0xca, 0xd9, 0xe2, 0x4c, 0x2f, 0x00, 0x1c, 0x00, 0x2d, 0x00,
  0x00, 0x00, 0x00, 0x47, 0x81, 0xda, 0x00, 0x3b, 0x1e, 0x00, 0x00, 0x1b,
  0x1e, 0xe4, 0x00, 0x2b, 0x4c, 0x00, 0x20, 0x00, 0xe7, 0xe5, 0x2a, 0xde,
  0x00, 0x36, 0x00, 0x00, 0x31, 0xe1, 0xd3, 0xd9, 0xdc, 0x00, 0x00, 0x00,
  0xd0, 0x00, 0x00, 0x00, 0x00, 0x00, 0xd5, 0x00, 0xbc, 0x00, 0x74, 0x59,
  0x52, 0xd9, 0x00, 0x00, 0x00, 0x25, 0x00, 0x38, 0x00, 0x00, 0x00, 0x4f,
  0x68, 0x48, 0xdd, 0xde, 0x00, 0x41, 0x24, 0x21, 0x2e, 0x00, 0x00, 0x00,
  0x00, 0x48, 0x00, 0x00, 0x00, 0x1a, 0x00, 0x00, 0x1b, 0xde, 0x33, 0x00,
  0xd2, 0x00, 0x2a, 0x00, 0x00, 0x1e, 0x00, 0x00, 0xe5, 0x00, 0x00, 0x1f,
  0x00, 0x00, 0xe3, 0x00, 0x2a, 0xd3, 0x00, 0x1a, 0x00, 0x00, 0x3a, 0xe6,
  0x00, 0xe6, 0x00, 0x00, 0x00, 0x24, 0x00, 0x24, 0x25, 0x1b, 0xdb, 0x00,
  0xd1, 0x1e, 0xe4, 0x00, 0xd9, 0x44, 0x00, 0x27, 0x00, 0x19, 0x1c, 0x35,
  0x1d, 0x00, 0x1d, 0x00, 0x32, 0x00, 0xe0, 0x2b, 0x3f, 0xc7, 0xd0, 0x00,
  0x00, 0xd4, 0x00, 0x2e, 0x00, 0xe5, 0x00, 0x20, 0x2b, 0xdb, 0x00, 0x00,
  0x00, 0x00, 0x00, 0x00, 0xdf, 0x00, 0x00, 0x22, 0xcf, 0x20, 0x30, 0x25,
  0x1b, 0x00, 0x23, 0x2c, 0x26, 0xca, 0x00, 0xe7, 0x3f, 0x19, 0x2a, 0x00,
  0x00, 0xe2, 0xd1, 0x00, 0x24, 0x00, 0x1c, 0x2d, 0xd7, 0x25, 0x00, 0x00,
  0x34, 0xca, 0x00, 0x00, 0xe2, 0x00, 0xe2, 0x00, 0x29, 0x21, 0xd5, 0x00,
  0x38, 0xe6, 0x00, 0x24, 0x42, 0x1a, 0x00, 0x00, 0x00, 0x24, 0x00, 0x1d,
  0x00, 0x00, 0x1d, 0x3c, 0x00, 0x00, 0xd7, 0x00, 0xc8, 0x00, 0x00, 0x00,
  0x2a, 0x00, 0x00, 0x00, 0x00, 0xe0, 0x00, 0x00, 0x00, 0x00, 0x00, 0x2f,
  0x34, 0x00, 0x00, 0x31, 0xd9, 0xd6, 0x00, 0x00, 0xd6, 0x1e, 0xd7, 0xd0,
  0xe3, 0x00, 0xe6, 0x00, 0xdf, 0x00, 0x00, 0x00, 0x00, 0x00, 0x3f, 0x00,
  0x1b, 0xe4, 0xe1, 0x25, 0x00, 0xda, 0x27, 0x2e, 0x00, 0xd2, 0x1b, 0x00,
  0x1b, 0x1a, 0xc8, 0xdb, 0x2c, 0x00, 0x1e, 0x1f, 0x00, 0x00, 0x1e, 0x1e,
  0x30, 0x3e, 0xcd, 0x00, 0x00, 0x00, 0x33, 0x28, 0xe4, 0x33, 0x00, 0x00,
  0x00, 0xe5, 0xc6, 0xe4, 0xd3, 0xe5, 0x2a, 0x00, 0x28, 0x00, 0x00, 0x00,
  0x00, 0x00, 0x00, 0x00, 0x22, 0x00, 0xe4, 0x00, 0x26, 0x00, 0x00, 0x00,
  0x00, 0xdc, 0x00, 0x00, 0x21, 0xdf, 0xe5, 0x00, 0x00, 0xd4, 0x30, 0xe2,
  0xe0, 0x25, 0xdc, 0x00, 0xce, 0x00, 0x00, 0x00, 0xd3, 0xe7, 0x00, 0x2f,
  0x50, 0x6b, 0x35, 0xda, 0x44, 0x23, 0x48, 0x00, 0x00, 0x00, 0xdd, 0xd0,
  0x00, 0x39, 0x00, 0x1b, 0x1a, 0x00, 0x00, 0x2f, 0x23, 0x00, 0x00, 0x36,
  0x34, 0x2e, 0xdc, 0x00, 0x00, 0x28, 0x00, 0x00, 0xd9, 0xd0, 0x2a, 0x23,
  0xd4, 0x00, 0x00, 0x2e, 0x00, 0x00, 0x00, 0x00, 0x00, 0x00, 0xde, 0xe1,
  0x00, 0xcc, 0x00, 0x00, 0x00, 0x26, 0x00, 0x00, 0xe7, 0x00, 0xc9, 0x00,
  0x00, 0x2a, 0x00, 0x00, 0x00, 0x28, 0x00, 0x00, 0xca, 0xb3, 0x7f, 0xb5,
  0x00, 0x00, 0xcb, 0x28, 0x00, 0x30, 0x9d, 0xb7, 0xa5, 0x55, 0x66, 0x00,
  0xd2, 0xbc, 0x00, 0x2f, 0x00, 0x2c, 0x4f, 0x00, 0x42, 0x00, 0x4d, 0x00,
  0x00, 0x00, 0x4e, 0x2d, 0x51, 0xd6, 0x2f, 0x37, 0xc2, 0x00, 0xda, 0x00,
  0x43, 0xd2, 0x4f, 0x6a, 0x00, 0xaa, 0x00, 0x8c, 0x32, 0x00, 0x00, 0x00,
  0xc9, 0x30, 0xb0, 0x00, 0x00, 0x00, 0x00, 0x28, 0x00, 0xd9, 0x00, 0x3c,
  0x00, 0x2a, 0x00, 0x00, 0x00, 0xd1, 0xd5, 0xd0, 0xa5, 0x00, 0x00, 0xba,
  0x00, 0xac, 0x32, 0x00, 0x2b, 0xcd, 0x62, 0x00, 0x00, 0xa3, 0x00, 0x00,
  0xbe, 0xaf, 0x00, 0x00, 0xa7, 0xbd, 0x00, 0xbf, 0x00, 0xb5, 0x00, 0xc8,
  0xc2, 0xb8, 0x58, 0xc3, 0x00, 0x00, 0x00, 0x00, 0x00, 0x00, 0x26, 0x00,
  0xa4, 0x33, 0xca, 0xaa, 0x00, 0xad, 0x31, 0xa8, 0x29, 0xa3, 0x25, 0x00,
  0x00, 0x00, 0x00, 0x00, 0xc2, 0x00, 0x00, 0x00, 0x00, 0x47, 0x00, 0xd2,
  0x00, 0x00, 0xc5, 0x4c, 0x00, 0x00, 0x00, 0xbe, 0x4c, 0xbe, 0x00, 0xd8,
  0x00, 0x8f, 0x3d, 0x4a, 0x27, 0x00, 0xd2, 0x2f, 0xc0, 0x00, 0x00, 0x00,
  0xc2, 0x4e, 0x3f, 0xd4, 0x35, 0x00, 0xa9, 0x00, 0x31, 0x00, 0x00, 0xc6,
  0x00, 0x2a, 0xab, 0x36, 0x00, 0x38, 0x00, 0x00, 0xcc, 0x00, 0x00, 0xc1,
  0x00, 0x00, 0x40, 0x00, 0x35, 0x00, 0x00, 0x00, 0x46, 0x00, 0x28, 0x00,
  0x00, 0x25, 0x00, 0xc3, 0x00, 0x46, 0xd5, 0x00, 0x00, 0x00, 0xda, 0x2c,
  0xc9, 0xcd, 0x00, 0x00, 0xb8, 0x00, 0x00, 0xc0, 0x00, 0x00, 0x2b, 0x00,
  0x00, 0x00, 0x00, 0x4d, 0x00, 0x00, 0x00, 0x28, 0x4f, 0x00, 0x27, 0x00,
  0x00, 0x00, 0x27, 0x00, 0x28, 0xba, 0x00, 0xbf, 0x29, 0x3f, 0x00, 0x00,
  0x00, 0x00, 0x00, 0x00, 0x00, 0x00, 0x00, 0xd9, 0x2a, 0x2b, 0x00, 0x00,
  0x00, 0x00, 0x00, 0x00, 0x00, 0x00, 0x31, 0x00, 0x98, 0xc8, 0x00, 0x00,
  0x00, 0x00, 0xd2, 0xbb, 0x38, 0xac, 0x00, 0x00, 0x00, 0x00, 0x2c, 0x00,
  0x00, 0x32, 0x00, 0x00, 0x00, 0x00, 0xbc, 0xd4, 0xb1, 0x00, 0xa7, 0xd6,
  0xd3, 0x00, 0x00, 0x25, 0xcb, 0xbd, 0xb3, 0xb2, 0xbc, 0xb9, 0x00, 0x00,
  0x00, 0x00, 0xbf, 0xd0, 0xce, 0x00, 0xcb, 0x00, 0xc5, 0xb2, 0xd7, 0xd6,
  0xd0, 0x00, 0xba, 0xbc, 0x00, 0x00, 0x27, 0x00, 0x00, 0x00, 0xce, 0x33,
  0x00, 0x00, 0xc0, 0x00, 0x33, 0x00, 0x00, 0x3d, 0x00, 0x00, 0xd6, 0x00,
  0xa9, 0x00, 0x00, 0xae, 0x00, 0x00, 0x00, 0xbb, 0xb6, 0x00, 0xc4, 0x00,
  0x00, 0xd5, 0x00, 0x00, 0x00, 0x00, 0xcb, 0xbd, 0xcd, 0x2f, 0xc3, 0x00,
  0x00, 0x4c, 0x00, 0xd5, 0x00, 0xb6, 0xd6, 0xbf, 0xcf, 0x35, 0x00, 0x00,
  0xd8, 0x00, 0x00, 0xdb, 0x00, 0x00, 0x00, 0x31, 0x00, 0xd8, 0x3f, 0xd7,
  0x3f, 0x00, 0x37, 0x32, 0xc7, 0x29, 0xc5, 0xc9, 0xd5, 0x00, 0x00, 0x40,
  0x00, 0x34, 0x3b, 0x2f, 0x00, 0x00, 0x00, 0x00, 0x28, 0xce, 0xbb, 0x2d,
  0x00, 0x00, 0x00, 0x00, 0x00, 0x00, 0xc1, 0x00, 0xae, 0x38, 0x29, 0xb2,
  0x00, 0x00, 0xbf, 0xd1, 0x00, 0xc5, 0x00, 0x00, 0xae, 0xc5, 0x00, 0x00,
  0x00, 0xd7, 0x35, 0xd3, 0x44, 0x00, 0x00, 0x00, 0x00, 0x30, 0x94, 0x00,
  0x00, 0x00, 0xc9, 0x2c, 0x00, 0x00, 0xae, 0x00, 0x00, 0x00, 0x34, 0x00,
  0x00, 0x00, 0x00, 0xdb, 0x00, 0x00, 0x00, 0xc5, 0x00, 0xda, 0x2b, 0x00,
  0xc7, 0xd7, 0x2d, 0xdb, 0x00, 0x00, 0xad, 0x00, 0xc7, 0xd6, 0x30, 0xb3,
  0xbd, 0xd4, 0xda, 0x00, 0xbe, 0x38, 0x00, 0x00, 0x5e, 0x00, 0x00, 0x00,
  0x00, 0x4f, 0x00, 0x00, 0x00, 0x00, 0xac, 0x9d, 0xcb, 0x3a, 0xd4, 0xd8,
  0x00, 0xc1, 0xba, 0xbf, 0x00, 0x39, 0x00, 0xa7, 0x00, 0x00, 0x00, 0xad,
  0x00, 0x00, 0x00, 0xd9, 0x00, 0xc8, 0x41, 0xb5, 0xd8, 0x47, 0x39, 0x00,
  0x00, 0x00, 0x00, 0x00, 0x00, 0x00, 0xb4, 0x00, 0x00, 0xd6, 0x00, 0x00,
  0x00, 0x00, 0x46, 0x00, 0x00, 0x00, 0x00, 0x30, 0x00, 0x00, 0x00, 0x2f,
  0xba, 0x47, 0x53, 0x41, 0x00, 0x00, 0x00, 0x00, 0x31, 0x30, 0x5d, 0xcc,
  0xcb, 0x00, 0x4f, 0xc2, 0x00, 0x2f, 0xc5, 0x00, 0xbd, 0xb8, 0x3e, 0x00,
  0x00, 0x00, 0x3a, 0x00, 0x55, 0x40, 0x00, 0xd1, 0x00, 0xcf, 0x54, 0x7f,
  0xaf, 0x00, 0xba, 0x00, 0x00, 0x4b, 0x00, 0x00, 0x2f, 0x00, 0x00, 0x3a,
  0x00, 0xb0, 0x00, 0x00, 0x00, 0xc9, 0x45, 0xbc, 0x00, 0xc3, 0x37, 0x34,
  0x51, 0x00, 0x00, 0xcd, 0xaa, 0x6e, 0x00, 0x00, 0x00, 0x00, 0xc8, 0x00,
  0x00, 0x00, 0x57, 0xc5, 0xb8, 0x2e, 0x5f, 0x46, 0x45, 0xd2, 0x00, 0x53,
  0x2e, 0x00, 0x00, 0x3f, 0x43, 0x00, 0x00, 0x00, 0xc7, 0x62, 0x00, 0x40,
  0x34, 0x00, 0x33, 0x32, 0xd2, 0xc8, 0x44, 0x00, 0x3e, 0xc0, 0x00, 0x46,
  0x33, 0x00, 0x00, 0x00, 0x00, 0x4c, 0xc2, 0xbf, 0x39, 0x00, 0x00, 0xd2,
  0xcb, 0x54, 0x32, 0x00, 0xca, 0x00, 0x3a, 0x00, 0x33, 0x46, 0x00, 0x00,
  0x00, 0x00, 0x2e, 0x00, 0x47, 0x00, 0x00, 0xd2, 0x3e, 0x42, 0xae, 0x00,
  0xa5, 0x00, 0x54, 0xce, 0x3e, 0x00, 0x00, 0x6b, 0xc6, 0xb0, 0x00, 0x00,
  0x00, 0x3b, 0x4f, 0x00, 0x00, 0x00, 0x00, 0x00, 0x00, 0x00, 0x00, 0xd3,
  0x00, 0xcb, 0x00, 0xc3, 0x00, 0x00, 0x00, 0x00, 0x37, 0x00, 0x00, 0x00,
  0x00, 0x32, 0x00, 0x00, 0xbc, 0xc0, 0x00, 0xbc, 0xcd, 0x00, 0x94, 0x00,
  0x00, 0x56, 0x00, 0x00, 0xac, 0x00, 0xaf, 0x00, 0x2f, 0xbf, 0x00, 0x00,
  0x00, 0x00, 0x00, 0x00, 0x00, 0x00, 0x00, 0x00, 0x00, 0x00, 0x3f, 0x00,
  0x00, 0x00, 0xa4, 0xb1, 0x00, 0xbe, 0xbe, 0x30, 0x00, 0x35, 0x00, 0xc8,
  0x00, 0xd1, 0xd0, 0x2d, 0x00, 0x44, 0x34, 0xb8, 0xc8, 0x3c, 0x4f, 0x00,
  0x00, 0xcd, 0x46, 0x00, 0xa9, 0xce, 0x77, 0x00, 0x2f, 0x00, 0x00, 0x00,
  0x00, 0x61, 0x50, 0x4c, 0x51, 0x36, 0x00, 0x00, 0x00, 0xb8, 0x00, 0x00,
  0x00, 0x00, 0xc3, 0xc9, 0x57, 0x00, 0x00, 0x00, 0xcd, 0x00, 0x00, 0x43,
  0x00, 0x00, 0x00, 0x00, 0x00, 0x47, 0x30, 0x00, 0xd0, 0x3f, 0xc6, 0x00,
  0x00, 0x00, 0x00, 0x00, 0x00, 0x00, 0xac, 0x37, 0xc4, 0x00, 0x00, 0xc5,
  0x00, 0x69, 0x6e, 0x57, 0x00, 0x00, 0x4c, 0x00, 0x3f, 0x34, 0x3e, 0xd0,
  0x00, 0x00, 0x45, 0xbd, 0x56, 0xb3, 0xae, 0x00, 0xc9, 0x00, 0x00, 0x57,
  0x00, 0x00, 0x00, 0x00, 0x58, 0xb1, 0x00, 0x5d, 0x00, 0x49, 0x00, 0xb4,
  0x00, 0xc0, 0x59, 0x00, 0x00, 0x00, 0x00, 0x00, 0x2e, 0x3d, 0x00, 0x00,
  0x00, 0x00, 0x38, 0x00, 0x00, 0x3b, 0x00, 0x51, 0x4f, 0x00, 0x30, 0xc6,
  0xc3, 0xd2, 0xba, 0xcd, 0x58, 0x00, 0x4d, 0x4e, 0x00, 0x00, 0x4f, 0x35,
  0x00, 0x00, 0xc3, 0x00, 0x00, 0x30, 0xcf, 0xb3, 0x5e, 0x43, 0x33, 0x31,
  0x00, 0x35, 0x00, 0x35, 0x31, 0x4d, 0x00, 0x5e, 0x00, 0x00, 0x00, 0x58,
  0x00, 0x4e, 0x65, 0x00, 0x6b, 0xcf, 0x00, 0x00, 0x31, 0x00, 0x00, 0x00,
  0x5b, 0x00, 0x00, 0x00, 0x00, 0xbf, 0x00, 0x3e, 0xc1, 0xb6, 0x51, 0x00,
  0x3a, 0x00, 0x00, 0x3c, 0x00, 0xc6, 0x00, 0xc1, 0x00, 0xca, 0x00, 0x00,
  0x5b, 0x00, 0x00, 0x52, 0x00, 0xb9, 0x00, 0xc5, 0x2d, 0x43, 0x00, 0x00,
  0x00, 0x00, 0x00, 0xcc, 0x00, 0x00, 0xb9, 0x00, 0x00, 0x30, 0x5e, 0x53,
  0x00, 0x00, 0x00, 0x00, 0x38, 0x30, 0xbf, 0x56, 0x3a, 0x00, 0x3c, 0x00,
  0x00, 0x00, 0x3f, 0x60, 0x3e, 0x00, 0x00, 0x00, 0x00, 0x3e, 0x48, 0x00,
  0x45, 0xc5, 0x00, 0x00, 0x00, 0xbe, 0x00, 0x00, 0x5e, 0xbd, 0x00, 0x48,
  0x53, 0x00, 0x00, 0x00, 0x65, 0x00, 0xbb, 0x00, 0x00, 0x00, 0x3d, 0x00,
  0x3b, 0xbb, 0x00, 0x00, 0x00, 0x4d, 0x00, 0x55, 0x00, 0x00, 0x00, 0x00,
  0xce, 0x00, 0xca, 0x00, 0x38, 0xd0, 0x00, 0x32, 0x00, 0x00, 0x00, 0x00,
  0x00, 0x00, 0xb7, 0x4d, 0x00, 0x35, 0x3a, 0x00, 0xc7, 0x00, 0x59, 0x00,
  0x56, 0x38, 0x00, 0x00, 0x35, 0x00, 0xab, 0x00, 0xcb, 0x00, 0x39, 0xbe,
  0x00, 0x00, 0x6c, 0x37, 0x00, 0x00, 0x00, 0x31, 0x00, 0x00, 0x2e, 0x00,
  0xd1, 0x00, 0x2d, 0x00, 0x00, 0xd1, 0xb5, 0x00, 0x00, 0x00, 0xb2, 0x3e,
  0x00, 0x00, 0x00, 0x4f, 0x30, 0x90, 0xcc, 0x29, 0xa0, 0xb5, 0xc9, 0x00,
  0x00, 0x00, 0x00, 0x00, 0xc7, 0x7f, 0x2c, 0x00, 0x48, 0x4c, 0x00, 0xb7,
  0x00, 0x00, 0xb9, 0x00, 0x00, 0xd7, 0x4c, 0xb6, 0x5f, 0x00, 0x00, 0x00,
  0x00, 0x2c, 0xb2, 0xba, 0x40, 0x00, 0xc2, 0xac, 0xab, 0x00, 0x00, 0x38,
  0x00, 0x00, 0xbf, 0x00, 0x36, 0x00, 0xd1, 0x32, 0x00, 0x39, 0x47, 0x00,
  0x00, 0x00, 0x00, 0x00, 0x00, 0x00, 0x2f, 0x00, 0xc5, 0x42, 0xc2, 0x00,
  0x00, 0x00, 0x00, 0x00, 0x00, 0xc6, 0x00, 0xc4, 0x00, 0xc7, 0x63, 0x00,
  0x63, 0xa5, 0x38, 0x00, 0x00, 0x3e, 0xb6, 0x00, 0x00, 0x38, 0x00, 0x00,
  0x6a, 0x2d, 0x3b, 0x00, 0x00, 0x4f, 0xb9, 0x00, 0x4e, 0x00, 0x00, 0xd1,
  0x00, 0xd1, 0x57, 0x00, 0x00, 0x00, 0xba, 0x4d, 0x56, 0x30, 0x00, 0x4a,
  0x43, 0x00, 0x00, 0x00, 0x00, 0xd7, 0x00, 0x00, 0x00, 0xd3, 0x00, 0x00,
  0x00, 0x00, 0x38, 0x31, 0x00, 0xae, 0x38, 0x5c, 0x00, 0x00, 0x4e, 0xc7,
  0x41, 0x00, 0x00, 0x2f, 0x41, 0xb6, 0x3f, 0x00, 0x58, 0x00, 0x00, 0x44,
  0x31, 0xd0, 0x00, 0x00, 0xb3, 0x6d, 0x38, 0x00, 0x65, 0x00, 0x49, 0xd0,
  0x00, 0x00, 0xb3, 0x00, 0x91, 0xa2, 0xb9, 0xcd, 0x00, 0x00, 0x5c, 0x74,
  0xca, 0x00, 0x00, 0x00, 0xc7, 0x51, 0x00, 0xb2, 0x00, 0x3a, 0x34, 0xc1,
  0x34, 0x00, 0x34, 0xc6, 0x00, 0xd0, 0x4a, 0xb4, 0x00, 0x00, 0xc4, 0x00,
  0x30, 0xd2, 0x42, 0x52, 0x36, 0x00, 0xbe, 0x00, 0xb8, 0x00, 0x71, 0x00,
  0x2d, 0x00, 0x45, 0x44, 0x43, 0x00, 0xca, 0x00, 0x58, 0x00, 0x00, 0x4d,
  0x3f, 0x2d, 0x3d, 0x00, 0x00, 0x00, 0xcf, 0xd6, 0x00, 0x29, 0x00, 0x41,
  0x00, 0xcc, 0x00, 0x48, 0x00, 0x00, 0x00, 0x30, 0x00, 0x76, 0x37, 0x00,
  0x00, 0x34, 0x00, 0x00, 0x4c, 0x31, 0x00, 0xaf, 0x00, 0x00, 0x00, 0x00,
  0xd4, 0x00, 0x38, 0x42, 0x00, 0x35, 0x00, 0xd1, 0x00, 0x00, 0x34, 0x00,
  0x00, 0xc4, 0x00, 0x00, 0xd6, 0xa5, 0x00, 0x00, 0x00, 0x00, 0x00, 0xa9,
  0x30, 0x2a, 0x00, 0x00, 0x00, 0xc2, 0x00, 0x00, 0x49, 0x4b, 0x00, 0xa4,
  0x00, 0xba, 0x00, 0xbc, 0x5b, 0xb7, 0xc1, 0xd2, 0x00, 0xca, 0x00, 0x00,
  0xc1, 0x00, 0x00, 0x34, 0x00, 0xb1, 0xb5, 0x00, 0x49, 0x33, 0x00, 0xc8,
  0x64, 0x00, 0x00, 0x00, 0xd6, 0x00, 0x34, 0x00, 0x4b, 0x4f, 0x30, 0x00,
  0x00, 0x49, 0x2e, 0x00, 0xb9, 0x00, 0x00, 0x00, 0x2d, 0x00, 0x3f, 0x44,
  0x00, 0x00, 0x00, 0x2b, 0xa1, 0x2f, 0x00, 0x00, 0x00, 0x00, 0x00, 0x00,
  0x00, 0x00, 0x51, 0xc0, 0xb8, 0x00, 0x00, 0x00, 0x00, 0xce, 0x00, 0xaa,
  0xc4, 0xbc, 0x9e, 0x00, 0xd2, 0x00, 0x00, 0x31, 0x00, 0x00, 0xb4, 0x43,
  0x00, 0xcb, 0x00, 0xbb, 0x45, 0x00, 0x42, 0x2c, 0xca, 0x00, 0xc3, 0x33,
  0x00, 0xba, 0xcd, 0x00, 0x00, 0xb1, 0x00, 0xbc, 0x00, 0x00, 0x00, 0x00,
  0x2a, 0x00, 0x00, 0x00, 0x2a, 0x4a, 0x00, 0x00, 0xb7, 0x00, 0x3b, 0x4c,
  0x00, 0x30, 0xd3, 0x00, 0x34, 0x00, 0x00, 0x00, 0xcc, 0x00, 0x00, 0x00,
  0x00, 0x45, 0xc6, 0x00, 0x00, 0x46, 0x00, 0x00, 0x00, 0x37, 0xbc, 0x00,
  0x2e, 0x00, 0x00, 0x00, 0x4a, 0xcb, 0x00, 0x4e, 0x37, 0x4d, 0x32, 0x00,
  0x00, 0xa2, 0x41, 0x00, 0x30, 0x39, 0x2f, 0x44, 0xc7, 0x00, 0xd3, 0x00,
  0x00, 0xae, 0x00, 0xb0, 0xb4, 0x4a, 0x39, 0xce, 0xc4, 0x00, 0x00, 0x00,
  0xb1, 0x4e, 0xd2, 0x9e, 0xb7, 0xb0, 0xa3, 0x00, 0xc0, 0x00, 0x00, 0x63,
  0x00, 0x97, 0xa8, 0x00, 0x3f, 0x60, 0x2d, 0x00, 0x00, 0x00, 0x00, 0x00,
  0x00, 0x2e, 0x00, 0xc7, 0xc0, 0x00, 0x00, 0x00, 0x00, 0x00, 0xc4, 0x2d,
  0x00, 0x3e, 0x00, 0x00, 0x00, 0x00, 0xd6, 0x00, 0x00, 0x33, 0x00, 0x00,
  0x00, 0x56, 0x00, 0x00, 0x00, 0x00, 0x00, 0x00, 0x52, 0x00, 0xa7, 0x33,
  0x48, 0xe5, 0x00, 0x00, 0x00, 0xc4, 0x00, 0xd1, 0x22, 0xd8, 0x00, 0xd8,
  0xc9, 0x34, 0xdf, 0x00, 0x00, 0x3f, 0x1c, 0x3c, 0x00, 0x00, 0x24, 0xc6,
  0x00, 0x3b, 0x1d, 0x00, 0x00, 0x4e, 0x34, 0xe2, 0x00, 0x22, 0xc3, 0x00,
  0xe1, 0xdd, 0xc4, 0x00, 0x00, 0x00, 0x00, 0x32, 0x33, 0x00, 0x77, 0x2d,
  0x00, 0x3f, 0x29, 0x00, 0x00, 0x00, 0x1e, 0x00, 0xd0, 0x00, 0xd1, 0x00,
  0x20, 0x00, 0x7f, 0x00, 0xbe, 0x00, 0xd5, 0x00, 0x1d, 0xcd, 0xd0, 0x00,
  0x00, 0xc4, 0x00, 0xcd, 0x00, 0x00, 0x00, 0xe4, 0x00, 0x00, 0x22, 0x00,
  0x00, 0x00, 0x00, 0xe4, 0xe2, 0x00, 0x2f, 0x48, 0x2b, 0x2f, 0x00, 0x00,
  0x00, 0x1c, 0x32, 0x31, 0x24, 0x00, 0x00, 0xbb, 0x00, 0x00, 0x00, 0x00,
  0x38, 0xc4, 0x00, 0x22, 0x1a, 0x00, 0x00, 0x33, 0x00, 0x00, 0xe6, 0x00,
  0xe5, 0x2b, 0x2f, 0xd9, 0x00, 0x00, 0x00, 0xde, 0x00, 0x22, 0x00, 0xe2,
  0xce, 0xca, 0x00, 0x00, 0xde, 0x00, 0x00, 0x37, 0xd3, 0x00, 0xda, 0x00,
  0x00, 0x00, 0xe3, 0x00, 0x30, 0x00, 0x3b, 0x00, 0x00, 0x00, 0x1a, 0xe6,
  0x00, 0x00, 0xcf, 0x34, 0x88, 0xb3, 0x00, 0x00, 0xc8, 0x00, 0x00, 0xd4,
  0x00, 0x00, 0x00, 0xc2, 0x00, 0x00, 0x00, 0xdc, 0x00, 0x21, 0x00, 0x00,
  0xd0, 0xe4, 0x00, 0x00, 0x00, 0x00, 0x00, 0x00, 0xc2, 0x00, 0x3a, 0x00,
  0x00, 0x00, 0x00, 0x00, 0xe5, 0x00, 0x3d, 0x00, 0x00, 0x00, 0x35, 0x27,
  0x00, 0xd7, 0x00, 0x00, 0x00, 0x26, 0x00, 0x00, 0x40, 0x00, 0xc7, 0x00,
  0x1d, 0x40, 0xd8, 0x00, 0x00, 0x00, 0x00, 0x2f, 0x00, 0x38, 0xe0, 0xe5,
  0x00, 0x00, 0x00, 0x00, 0x00, 0x00, 0x00, 0x25, 0x00, 0x29, 0xd7, 0xbd,
  0x00, 0x3f, 0xde, 0x00, 0x3a, 0xe2, 0x00, 0x00, 0x00, 0x00, 0x00, 0xd9,
  0x00, 0x23, 0x00, 0x00, 0x00, 0xe4, 0x00, 0xd2, 0x00, 0x1b, 0x24, 0x00,
  0x00, 0xe1, 0xdf, 0x00, 0xd6, 0xd9, 0xd5, 0x20, 0x00, 0x00, 0x00, 0x00,
  0x00, 0xbc, 0xd7, 0x2d, 0x20, 0x20, 0x43, 0x00, 0x00, 0xe0, 0x26, 0x32,
  0xc9, 0x2a, 0x00, 0x2e, 0x00, 0x00, 0x26, 0x23, 0x1d, 0x00, 0x00, 0xcb,
  0xca, 0xd9, 0x26, 0x47, 0xce, 0xe2, 0x1c, 0x00, 0x1a, 0x00, 0x00, 0x3b,
  0x00, 0x00, 0x2c, 0x1d, 0x00, 0xcf, 0x00, 0x00, 0x00, 0x00, 0xe5, 0x20,
  0x35, 0x00, 0xd9, 0x3a, 0x3f, 0x20, 0x00, 0xd8, 0x00, 0x3f, 0x00, 0x00,
  0x00, 0x00, 0x00, 0x00, 0x35, 0x23, 0xd7, 0x00, 0x3f, 0xcf, 0x00, 0x00,
  0x00, 0xde, 0x00, 0x1a, 0x00, 0x00, 0x00, 0xd0, 0x00, 0x00, 0x00, 0x00,
  0x00, 0x2c, 0x1c, 0x00, 0xe2, 0x23, 0x26, 0x00, 0xe1, 0x00, 0x1c, 0x00,
  0x47, 0x00, 0xdd, 0x00, 0xde, 0x3a, 0xcf, 0x00, 0x00, 0x00, 0x2f, 0xb9,
  0x00, 0x4a, 0x3f, 0x2b, 0x00, 0x00, 0x1b, 0x32, 0x49, 0x00, 0x21, 0x25,
  0x3a, 0xd3, 0x00, 0x00, 0x00, 0x00, 0x4a, 0x1d, 0x22, 0x00, 0x00, 0x2c,
  0xd7, 0x00, 0x00, 0x00, 0x49, 0x00, 0x39, 0x00, 0x00, 0x00, 0x00, 0x00,
  0x00, 0x00, 0x48, 0x00, 0x35, 0x24, 0xe1, 0x30, 0x00, 0xde, 0x00, 0x00,
  0x00, 0x00, 0xc6, 0x00, 0x23, 0xbd, 0x1a, 0x00, 0x35, 0xd4, 0x00, 0x00,
  0x00, 0xd6, 0xdc, 0x00, 0x26, 0x35, 0x00, 0x00, 0x00, 0xe5, 0xe0, 0x00,
  0xe4, 0xe3, 0xdf, 0x00, 0xd8, 0x56, 0x00, 0x1e, 0x00, 0xc3, 0x00, 0x00,
  0x35, 0x2b, 0x00, 0x00, 0x25, 0x3c, 0xab, 0xe0, 0x32, 0x00, 0x00, 0x00,
  0x00, 0x1b, 0x00, 0x35, 0x00, 0x00, 0xe5, 0x36, 0x44, 0x00, 0x2f, 0xcb,
  0x00, 0x2a, 0x00, 0x3f, 0x35, 0x34, 0x00, 0x32, 0x00, 0x00, 0x00, 0x00,
  0x27, 0x00, 0x29, 0x1e, 0x00, 0x51, 0x00, 0x25, 0xc5, 0x00, 0x00, 0xe0,
  0xd0, 0x00, 0x1d, 0x33, 0x00, 0x24, 0x28, 0x00, 0xd8, 0x25, 0x00, 0x2e,
  0x00, 0x00, 0xe5, 0x00, 0x00, 0x59, 0x32, 0x43, 0x26, 0x00, 0xc1, 0xe4,
  0x00, 0x00, 0x24, 0x00, 0x30, 0x00, 0x00, 0x2c, 0x00, 0x00, 0x00, 0x00,
  0x00, 0x00, 0x00, 0xcd, 0x00, 0x00, 0x00, 0xbc, 0xd3, 0xb9, 0x00, 0x00,
  0x00, 0x00, 0x00, 0x4c, 0x00, 0x4a, 0xab, 0x00, 0x00, 0x00, 0x00, 0x99,
  0x5f, 0x5f, 0x66, 0x00, 0x00, 0x00, 0xc2, 0x9c, 0x00, 0x00, 0x00, 0x00,
  0xb4, 0x6d, 0x56, 0x00, 0xb5, 0xab, 0x00, 0xb9, 0xb2, 0x00, 0x00, 0x71,
  0x4f, 0x00, 0x00, 0x78, 0x00, 0x00, 0x6e, 0x00, 0x00, 0x3d, 0x00, 0xbe,
  0x00, 0x00, 0x8d, 0x00, 0x00, 0x00, 0x00, 0x00, 0x00, 0x3c, 0x00, 0x00,
  0x51, 0x00, 0xaf, 0x00, 0x66, 0x00, 0x00, 0x00, 0x85, 0x5a, 0x95, 0x5c,
  0x00, 0x56, 0x00, 0x00, 0x00, 0x00, 0x45, 0xaa, 0x00, 0x9e, 0x94, 0x00,
  0x76, 0x00, 0xc3, 0x66, 0x00, 0x72, 0x9a, 0x00, 0xbb, 0x00, 0x00, 0x7c,
  0x00, 0x3e, 0x68, 0x00, 0xa3, 0x00, 0xa8, 0x00, 0xab, 0x00, 0x9d, 0xb0,
  0xa7, 0x6b, 0xa6, 0x00, 0x4b, 0x3d, 0x4f, 0x4e, 0x3c, 0x50, 0x4d, 0xab,
  0xaf, 0x78, 0x00, 0x00, 0x00, 0x00, 0xc3, 0x00, 0xa9, 0x3c, 0x8f, 0x00,
  0x00, 0x00, 0x77, 0x00, 0x4d, 0xb6, 0x00, 0x00, 0x6d, 0x00, 0x00, 0xb3,
  0x00, 0x3f, 0x00, 0x00, 0xb9, 0x5f, 0x00, 0x00, 0x46, 0x51, 0x00, 0x46,
  0x9b, 0x75, 0x00, 0x00, 0x66, 0x00, 0x00, 0x00, 0x00, 0x41, 0x9e, 0x00,
  0x00, 0x00, 0x00, 0x00, 0x00, 0x3c, 0x00, 0xbc, 0x9f, 0xa5, 0x00, 0x71,
  0x00, 0xa0, 0x00, 0x00, 0xc0, 0xbc, 0x00, 0x00, 0x9e, 0x00, 0x00, 0x00,
  0x40, 0xbe, 0x00, 0x00, 0x00, 0x00, 0x67, 0x00, 0x00, 0x8e, 0x79, 0x00,
  0x58, 0x47, 0x00, 0xa2, 0x00, 0x00, 0x00, 0x00, 0x00, 0x00, 0x00, 0x98,
  0x9f, 0x00, 0x98, 0xa3, 0x62, 0x3c, 0x00, 0x00, 0x00, 0xc3, 0x00, 0x00,
  0xb8, 0x00, 0x00, 0x00, 0x56, 0x00, 0x58, 0x9a, 0x00, 0xb6, 0x3b, 0x94,
  0x00, 0x00, 0x00, 0x63, 0x00, 0x00, 0x91, 0x67, 0x00, 0x6d, 0xac, 0x00,
  0x6b, 0x00, 0x63, 0x4d, 0x6f, 0x00, 0x41, 0x00, 0x6d, 0x3f, 0x00, 0x95,
  0xa6, 0x6b, 0x55, 0x66, 0x00, 0x62, 0x00, 0x5a, 0xba, 0x00, 0x9d, 0x00,
  0x5f, 0x57, 0x8d, 0xab, 0xba, 0xb4, 0x00, 0x00, 0x00, 0x00, 0x00, 0xc5,
  0x00, 0x3e, 0x00, 0x00, 0x00, 0xc2, 0x00, 0x61, 0x57, 0x49, 0x49, 0xa2,
  0x93, 0x00, 0x4c, 0x00, 0x75, 0x00, 0x00, 0x3f, 0x52, 0x00, 0x00, 0xb8,
  0xba, 0x00, 0x44, 0x00, 0xb2, 0xa0, 0x00, 0xbd, 0x00, 0xba, 0x5c, 0x00,
  0xbd, 0x00, 0x00, 0x41, 0x00, 0x48, 0xa3, 0x97, 0x00, 0x40, 0x00, 0x5f,
  0xb0, 0x00, 0x00, 0x4c, 0x43, 0x4e, 0xa8, 0x9c, 0x00, 0x00, 0x00, 0x00,
  0x55, 0x00, 0x69, 0x66, 0x64, 0x71, 0x00, 0x00, 0x00, 0x58, 0x4b, 0x00,
  0x5d, 0x00, 0x77, 0x57, 0x56, 0xaa, 0x00, 0x00, 0xa2, 0xb7, 0x00, 0x49,
  0x50, 0x00, 0x00, 0xb3, 0x00, 0x00, 0x00, 0xbc, 0x9b, 0x00, 0x00, 0xa8,
  0x00, 0xba, 0x47, 0x00, 0x00, 0x6d, 0x00, 0x00, 0x74, 0x00, 0x5e, 0x00,
  0xb0, 0xad, 0x00, 0xb3, 0xac, 0x00, 0xc5, 0x00, 0x00, 0x00, 0x00, 0xb8,
  0x00, 0xbe, 0x00, 0xac, 0x7b, 0xbb, 0x74, 0x00, 0xaa, 0x00, 0xa0, 0x41,
  0xae, 0x74, 0x46, 0xbf, 0xbb, 0x00, 0x00, 0x00, 0x00, 0x00, 0xc1, 0x00,
  0xbf, 0x00, 0x00, 0x00, 0x00, 0x00, 0xb0, 0x5c, 0x76, 0x00, 0x00, 0x81,
  0x47, 0xbf, 0x00, 0x00, 0x00, 0x00, 0x5f, 0x00, 0x00, 0x43, 0x7b, 0xbd,
  0x68, 0x00, 0x67, 0x66, 0xb7, 0x00, 0x9f, 0x69, 0xa6, 0x54, 0x00, 0x00,
  0x00, 0x70, 0x5d, 0xac, 0x62, 0x00, 0x00, 0x00, 0x00, 0x00, 0xc3, 0xc5,
  0x6e, 0x6b, 0x98, 0x6c, 0xa9, 0xa5, 0x00, 0x4b, 0x00, 0x61, 0x00, 0x00,
  0xc1, 0x00, 0x7b, 0x73, 0xb6, 0x00, 0xc5, 0x00, 0x00, 0x00, 0x61, 0x70,
  0x7a, 0xaa, 0x00, 0x69, 0x00, 0x78, 0x00, 0xc0, 0xc3, 0x6d, 0x00, 0xac,
  0xb1, 0x62, 0x00, 0x00, 0x5d, 0x44, 0x50, 0x00, 0x86, 0x59, 0x00, 0x00,
  0x00, 0x00, 0xc4, 0x00, 0x4c, 0x00, 0x54, 0x5c, 0x00, 0x4b, 0x5d, 0x00,
  0x91, 0x00, 0xa3, 0x00, 0x50, 0x50, 0x74, 0x00, 0x00, 0x00, 0x00, 0x99,
  0x00, 0x9e, 0x6c, 0x9a, 0x00, 0x00, 0x50, 0x00, 0x00, 0xb8, 0x00, 0x00,
  0x00, 0x42, 0xbb, 0x37, 0x51, 0x00, 0x41, 0x00, 0x3c, 0x00, 0x00, 0x00,
  0x32, 0x4a, 0x46, 0xb4, 0x32, 0x54, 0xb0, 0x00, 0x4e, 0x00, 0xc1, 0x00,
  0x49, 0x60, 0x30, 0xb7, 0x00, 0x00, 0xb7, 0x47, 0x00, 0x00, 0x4b, 0x00,
  0xaa, 0xac, 0x50, 0x63, 0x00, 0x63, 0x00, 0xd0, 0xb6, 0x00, 0x4f, 0x00,
  0x37, 0x00, 0xb0, 0xc4, 0x00, 0x00, 0x00, 0x00, 0x5a, 0x58, 0x63, 0x00,
  0xbe, 0x00, 0x00, 0x95, 0x3b, 0x00, 0x00, 0x00, 0xc6, 0x97, 0x00, 0xa8,
  0x3d, 0xcf, 0x00, 0xb2, 0x36, 0x00, 0x9c, 0xc6, 0x31, 0x00, 0x00, 0x00,
  0x00, 0x00, 0x46, 0x00, 0x4f, 0x00, 0xb4, 0x3a, 0x58, 0xbe, 0xbb, 0x3c,
  0x34, 0x00, 0x30, 0x00, 0x00, 0xbc, 0x00, 0xbd, 0x00, 0x00, 0xb1, 0x00,
  0xbc, 0x00, 0xba, 0x99, 0xa7, 0x69, 0x00, 0x35, 0xbd, 0x00, 0x00, 0x00,
  0x00, 0x00, 0x00, 0x00, 0xba, 0x00, 0xb6, 0x00, 0x00, 0xd0, 0x00, 0x30,
  0x00, 0x35, 0x00, 0x00, 0x38, 0x00, 0x00, 0x4d, 0xc5, 0x40, 0x00, 0x00,
  0xcf, 0xc7, 0x5a, 0x00, 0x00, 0x00, 0x00, 0x00, 0x00, 0x47, 0x00, 0xaa,
  0x00, 0x00, 0xcc, 0x00, 0x3b, 0xb3, 0x00, 0x00, 0x61, 0x00, 0xc8, 0x9c,
  0xab, 0x47, 0x00, 0x00, 0x00, 0x00, 0xcb, 0x00, 0x00, 0x4b, 0xd0, 0x00,
  0x00, 0x00, 0x46, 0x00, 0x00, 0x00, 0xcc, 0xba, 0x62, 0x00, 0x00, 0x00,
  0xb0, 0x30, 0x00, 0x3f, 0x31, 0x4a, 0xc8, 0x4f, 0xa5, 0x36, 0xb8, 0x00,
  0xc9, 0x9a, 0x00, 0x00, 0x00, 0x00, 0x00, 0x00, 0x00, 0x00, 0xb8, 0x00,
  0x00, 0x68, 0x00, 0xc5, 0x4f, 0xcf, 0xb6, 0xae, 0xb6, 0x00, 0xbe, 0x00,
  0x48, 0x00, 0x00, 0x00, 0x00, 0x00, 0x00, 0x00, 0x00, 0x00, 0x00, 0x00,
  0x00, 0x00, 0x00, 0xc2, 0xb8, 0x00, 0xc2, 0xba, 0x9e, 0xbd, 0x51, 0x00,
  0x00, 0x00, 0x47, 0x00, 0x00, 0xc2, 0x35, 0x4f, 0xa6, 0x00, 0x00, 0x00,
  0xb8, 0x00, 0x00, 0x00, 0x00, 0xce, 0x00, 0x00, 0x00, 0x5b, 0xca, 0x00,
  0x00, 0x00, 0x4a, 0x00, 0x00, 0xb4, 0x00, 0x00, 0x00, 0x00, 0x00, 0xae,
  0x00, 0xcd, 0xbd, 0xac, 0x3a, 0x00, 0x00, 0x00, 0xbe, 0x00, 0xc7, 0x46,
  0xbe, 0x00, 0x00, 0x00, 0x41, 0x00, 0x00, 0x00, 0xb3, 0x00, 0x00, 0xc8,
  0x55, 0x00, 0x00, 0x3a, 0x54, 0x47, 0x00, 0x00, 0x39, 0x00, 0x00, 0x00,
  0x34, 0x00, 0x00, 0x00, 0xc9, 0x57, 0xb9, 0x00, 0x58, 0x00, 0x5a, 0x00,
  0x00, 0x00, 0x00, 0x00, 0xaf, 0x43, 0x00, 0x00, 0x00, 0x00, 0xa0, 0x00,
  0x00, 0x00, 0x00, 0x3e, 0xb0, 0x5b, 0x00, 0x43, 0xbb, 0x00, 0x00, 0x00,
  0x36, 0x00, 0x00, 0x00, 0x00, 0xce, 0x00, 0x00, 0x00, 0x3b, 0x30, 0x00,
  0x4a, 0xbe, 0x32, 0x00, 0x00, 0x43, 0x00, 0x00, 0x4a, 0x00, 0x00, 0x42,
  0x00, 0xcb, 0x00, 0xbe, 0xa7, 0x00, 0x00, 0xca, 0x00, 0xc1, 0x00, 0x95,
  0x00, 0x00, 0x00, 0x56, 0x00, 0x00, 0x00, 0x65, 0x00, 0x48, 0x00, 0x5d,
  0x00, 0x00, 0x45, 0x00, 0x55, 0x00, 0x5f, 0x4b, 0x55, 0x00, 0xa5, 0x00,
  0x42, 0x00, 0xc0, 0x00, 0x00, 0x00, 0x4a, 0x31, 0x00, 0xb4, 0x00, 0x59,
  0x00, 0x00, 0x49, 0x00, 0x00, 0x00, 0xb8, 0x3f, 0x9b, 0x00, 0xa9, 0x00,
  0x00, 0xca, 0x00, 0x3b, 0xab, 0x00, 0x4b, 0x41, 0x32, 0xb9, 0x33, 0x00,
  0x3b, 0x00, 0x56, 0xce, 0x4b, 0x61, 0x4f, 0xb1, 0x00, 0x42, 0x00, 0x4e,
  0x00, 0x00, 0x00, 0x00, 0x00, 0x00, 0x00, 0x00, 0x3b, 0x36, 0x63, 0xbe,
  0x00, 0x00, 0x00, 0x00, 0x00, 0x53, 0x33, 0x00, 0x00, 0x00, 0x40, 0x00,
  0xb4, 0x58, 0xca, 0x00, 0x00, 0x54, 0x00, 0x4c, 0x00, 0x00, 0x36, 0xa5,
  0xca, 0x00, 0x5f, 0x00, 0x00, 0x3e, 0xaa, 0xc1, 0x59, 0x45, 0x00, 0x00,
  0x49, 0x49, 0x42, 0x00, 0xca, 0xb0, 0x81, 0x00, 0x00, 0x4e, 0xc0, 0x48,
  0x4d, 0x00, 0x34, 0xba, 0x00, 0xcf, 0x00, 0xb7, 0xbb, 0x4c, 0x00, 0xbf,
  0x00, 0x00, 0x00, 0x00, 0x4e, 0x3e, 0xc5, 0x49, 0x00, 0x00, 0x00, 0x00,
  0x4f, 0x62, 0x00, 0xaf, 0x00, 0x00, 0x3e, 0x00, 0x1e, 0x32, 0x2b, 0x00,
  0x00, 0x2a, 0x00, 0x00, 0xc6, 0x18, 0xe2, 0x32, 0x24, 0x20, 0x24, 0x00,
  0x00, 0x00, 0x00, 0xe5, 0x00, 0xe9, 0x20, 0xd5, 0x00, 0x00, 0x00, 0x1e,
  0xca, 0x16, 0xdf, 0x00, 0xdf, 0xba, 0x20, 0xd2, 0xd3, 0x9b, 0xdf, 0x00,
  0x00, 0x00, 0x00, 0x00, 0x00, 0xbf, 0x81, 0x21, 0xc0, 0x95, 0xce, 0xb4,
  0xda, 0x4b, 0xda, 0x00, 0x00, 0x24, 0x39, 0x9e, 0x2f, 0x20, 0x00, 0x00,
  0x00, 0x00, 0xe8, 0x00, 0x00, 0x31, 0x00, 0x00, 0x00, 0x00, 0x00, 0x00,
  0x00, 0xdf, 0xe7, 0x1f, 0x00, 0x00, 0x1c, 0x1f, 0xdc, 0x00, 0x17, 0x00,
  0x00, 0x1b, 0x00, 0xe8, 0x00, 0x21, 0x33, 0x00, 0x22, 0x00, 0xe9, 0x1a,
  0xb6, 0x19, 0x00, 0x00, 0x00, 0x18, 0x00, 0xca, 0x00, 0x00, 0x1d, 0x00,
  0x00, 0x00, 0xc3, 0xea, 0x00, 0x38, 0x30, 0x30, 0x00, 0x00, 0x26, 0x17,
  0x1f, 0x22, 0xd9, 0x00, 0x00, 0x00, 0xd9, 0x00, 0x22, 0x00, 0x00, 0xe7,
  0xd6, 0x00, 0x33, 0x00, 0x00, 0xad, 0x00, 0x38, 0x00, 0x2e, 0x00, 0xe2,
  0xea, 0x00, 0x00, 0xe3, 0x1b, 0x00, 0x00, 0x00, 0x00, 0x00, 0x23, 0x00,
  0x00, 0x00, 0x22, 0xda, 0xd1, 0x00, 0x2c, 0xe6, 0x00, 0xe4, 0x00, 0xe4,
  0x00, 0x3f, 0xe7, 0x00, 0x29, 0xda, 0x72, 0xac, 0xd2, 0xa6, 0xae, 0x00,
  0x00, 0x41, 0x20, 0x00, 0x00, 0x00, 0x00, 0x00, 0x00, 0xc3, 0xd4, 0x00,
  0x00, 0x00, 0x00, 0x00, 0x00, 0x00, 0x00, 0x23, 0x00, 0x00, 0x00, 0x00,
  0xe1, 0x21, 0xe6, 0x00, 0x00, 0xda, 0x00, 0x24, 0x31, 0x00, 0x00, 0x00,
  0x00, 0x00, 0x00, 0xe5, 0x00, 0x00, 0x00, 0x00, 0x2c, 0xdb, 0x00, 0x1a,
  0x00, 0xe2, 0xe9, 0xde, 0xd9, 0x1d, 0x00, 0x00, 0x00, 0x29, 0xcc, 0x00,
  0x00, 0x00, 0x00, 0x00, 0x00, 0xe7, 0xe4, 0x00, 0x24, 0x00, 0x2c, 0x00,
  0x22, 0x00, 0xe0, 0x00, 0xcf, 0x00, 0xcc, 0x27, 0x00, 0x00, 0x00, 0x2b,
  0x00, 0x26, 0x31, 0x1c, 0x00, 0x00, 0x00, 0x2a, 0x00, 0x26, 0x00, 0x00,
  0x00, 0xd6, 0xe7, 0x00, 0x00, 0x00, 0x00, 0x00, 0x00, 0x00, 0x21, 0x2b,
  0x1a, 0x00, 0x29, 0x00, 0x00, 0x00, 0xdf, 0x00, 0xde, 0x00, 0x20, 0x16,
  0xea, 0x00, 0x23, 0x00, 0x00, 0x36, 0x00, 0x00, 0x00, 0x00, 0xe4, 0x1f,
  0x35, 0x00, 0xdb, 0x27, 0x17, 0x00, 0xe1, 0x00, 0x00, 0x00, 0x00, 0x00,
  0x00, 0x2b, 0x00, 0x16, 0x46, 0x18, 0x00, 0xe9, 0x00, 0x1c, 0x37, 0x2b,
  0x00, 0x00, 0x00, 0x1b, 0x00, 0x00, 0x00, 0x1b, 0x1f, 0x00, 0x00, 0xea,
  0x27, 0x00, 0xe5, 0xdf, 0xd4, 0xdc, 0x3a, 0xda, 0x00, 0x18, 0x18, 0xdf,
  0xe1, 0xe7, 0x17, 0x1b, 0x30, 0x00, 0x00, 0xdf, 0x00, 0xde, 0x00, 0x00,
  0x00, 0x00, 0xdb, 0x26, 0x22, 0x00, 0xe3, 0x2b, 0x37, 0x00, 0x00, 0xe0,
  0x00, 0x00, 0x00, 0xde, 0x00, 0x00, 0x30, 0x00, 0x00, 0x00, 0x00, 0xe9,
  0xe9, 0x28, 0x00, 0xd7, 0xe4, 0x00, 0x2a, 0x00, 0x18, 0x00, 0x00, 0x00,
  0x29, 0x00, 0x00, 0x00, 0x26, 0xe8, 0x3b, 0x00, 0x22, 0x00, 0x00, 0x1f,
  0x00, 0x00, 0xd8, 0xd2, 0x00, 0x1c, 0x00, 0x00, 0x17, 0xe6, 0xdf, 0x00,
  0x00, 0x1e, 0x29, 0x30, 0x00, 0x6d, 0x00, 0xcf, 0x00, 0x00, 0xd5, 0xc0,
  0x00, 0x00, 0x00, 0x00, 0xe9, 0x00, 0xdc, 0x00, 0xda, 0x18, 0x44, 0x00,
  0x00, 0x00, 0x00, 0xe5, 0x1f, 0x3d, 0x00, 0x30, 0x00, 0x1c, 0x00, 0x37,
  0x3e, 0x2f, 0x21, 0x00, 0x2a, 0x24, 0x18, 0x00, 0x00, 0x00, 0x20, 0x00,
  0x1a, 0xd8, 0x21, 0x00, 0x32, 0x00, 0x22, 0x3b, 0xdf, 0x00, 0x00, 0x00,
  0xe8, 0x3b, 0x23, 0x37, 0x2c, 0x00, 0x30, 0x27, 0x00, 0xd7, 0x00, 0x00,
  0x00, 0xdc, 0x23, 0x17, 0x00, 0x00, 0x00, 0x00, 0x00, 0x17, 0x20, 0x2e,
  0x00, 0x1b, 0x1a, 0x1f, 0x33, 0x19, 0x2a, 0x1d, 0xe2, 0x00, 0xe9, 0x00,
  0x00, 0xe9, 0x00, 0x00, 0x00, 0x1a, 0x2d, 0x00, 0x2d, 0x2f, 0xe9, 0x00,
  0x00, 0x00, 0x26, 0x21, 0xcf, 0x00, 0x00, 0x00, 0x00, 0x00, 0x4b, 0x2a,
  0x1d, 0xeb, 0xec, 0xe4, 0x00, 0x1c, 0x26, 0xd8, 0x00, 0x2b, 0xdd, 0x2b,
  0x2b, 0xe6, 0xe9, 0xe4, 0x00, 0xde, 0x00, 0x1a, 0x00, 0x1d, 0x00, 0x00,
  0x00, 0xe4, 0xd1, 0x27, 0x00, 0x00, 0xe3, 0x00, 0xd8, 0xc6, 0x00, 0x00,
  0xe7, 0x00, 0xcd, 0xe5, 0x2e, 0xd5, 0x81, 0xeb, 0xdc, 0x00, 0x00, 0xe4,
  0x00, 0xd4, 0x00, 0xb0, 0x00, 0x00, 0xae, 0x2f, 0xeb, 0xea, 0x00, 0xea,
  0x00, 0xe8, 0xc8, 0x00, 0xd3, 0x00, 0x1f, 0x00, 0x00, 0x24, 0xca, 0x24,
  0x00, 0x25, 0xe0, 0x00, 0xc5, 0x18, 0x00, 0xdc, 0x1a, 0x00, 0x00, 0x1a,
  0x00, 0x00, 0x00, 0x00, 0x1c, 0xe9, 0xd8, 0xe0, 0xe8, 0xe3, 0xe9, 0x21,
  0x00, 0x00, 0xec, 0x00, 0xe6, 0xe1, 0x00, 0x00, 0x00, 0xeb, 0x00, 0x00,
  0x00, 0x00, 0x24, 0x3c, 0x00, 0x1d, 0x1a, 0x00, 0x00, 0x00, 0xc7, 0x00,
  0x00, 0x1e, 0x34, 0x36, 0x19, 0x00, 0x1d, 0xdf, 0xec, 0xe4, 0xea, 0xdb,
  0x00, 0x00, 0x14, 0x00, 0x00, 0x00, 0x2a, 0xdc, 0x1e, 0xec, 0x28, 0x00,
  0xe0, 0x00, 0xe5, 0x00, 0x00, 0x00, 0x36, 0x00, 0xe6, 0xdc, 0x28, 0x00,
  0x28, 0x00, 0x00, 0x00, 0xd6, 0xcf, 0xe8, 0x00, 0x15, 0x00, 0x00, 0x35,
  0xe4, 0xd8, 0xe5, 0x28, 0xce, 0xe4, 0x19, 0x22, 0x00, 0x1f, 0x00, 0xd7,
  0x2c, 0x00, 0xcf, 0x78, 0x00, 0x2b, 0xb1, 0xb6, 0xc4, 0x00, 0x33, 0x1b,
  0x25, 0x2f, 0x1d, 0xe9, 0x00, 0x29, 0xce, 0xeb, 0xc8, 0x00, 0x00, 0x00,
  0x00, 0xea, 0x1c, 0xd2, 0x00, 0xde, 0x00, 0xe9, 0xe2, 0xea, 0x15, 0x00,
  0x00, 0x00, 0x27, 0x00, 0x1a, 0x14, 0x00, 0x00, 0x14, 0x1f, 0x00, 0xdc,
  0x00, 0xe7, 0xe6, 0x18, 0x00, 0xe8, 0xe9, 0xe8, 0x00, 0x00, 0x16, 0xec,
  0xda, 0xe3, 0x14, 0xec, 0x00, 0x00, 0x00, 0x00, 0x00, 0x00, 0x00, 0xcf,
  0xdf, 0x00, 0x00, 0x00, 0x00, 0x29, 0x00, 0xda, 0x00, 0x26, 0x00, 0x1d,
  0x00, 0xd4, 0x22, 0x00, 0x00, 0xe7, 0x15, 0x30, 0x24, 0x1e, 0x2c, 0x00,
  0x00, 0x38, 0x00, 0x00, 0x00, 0x26, 0xd8, 0xe5, 0xe9, 0x19, 0x00, 0xdb,
  0x35, 0x00, 0x00, 0x00, 0x00, 0x00, 0xeb, 0xeb, 0xe4, 0x00, 0x00, 0x00,
  0x00, 0x00, 0xe1, 0xe5, 0x00, 0x25, 0x00, 0xea, 0x00, 0x1b, 0x00, 0x00,
  0x00, 0x00, 0xe0, 0xe0, 0x00, 0x1c, 0xe1, 0x00, 0xe8, 0xd0, 0x00, 0x00,
  0x00, 0x00, 0x1f, 0x00, 0x00, 0x00, 0x00, 0x00, 0x00, 0x00, 0x00, 0xd5,
  0x00, 0x00, 0x00, 0x00, 0xde, 0x00, 0x00, 0x00, 0x00, 0x00, 0x00, 0x00,
  0xea, 0xda, 0x00, 0x00, 0x00, 0xd5, 0x1c, 0x00, 0xe5, 0xe7, 0x1f, 0xea,
  0x1e, 0xe3, 0x19, 0xcd, 0x21, 0x15, 0xe4, 0x00, 0x2f, 0x00, 0x00, 0xc8,
  0x00, 0x16, 0x3f, 0x00, 0x1f, 0x00, 0xe5, 0x00, 0x00, 0x22, 0xd4, 0x00,
  0xd6, 0x00, 0x00, 0xe4, 0xe8, 0x21, 0x00, 0x00, 0x00, 0x00, 0x1c, 0x00,
  0x00, 0xd2, 0xe4, 0xec, 0x00, 0x00, 0x00, 0xe9, 0xdb, 0xe7, 0x00, 0xdc,
  0x00, 0x00, 0x00, 0x00, 0x00, 0xe9, 0x1b, 0x00, 0xed, 0x00, 0xdf, 0x00,
  0x00, 0x00, 0x00, 0xe5, 0xec, 0x00, 0x00, 0x00, 0x2d, 0x00, 0xd4, 0xd9,
  0x1d, 0x00, 0x1a, 0x00, 0x00, 0x1c, 0xd8, 0x00, 0xeb, 0xe7, 0x00, 0x1b,
  0xe7, 0x00, 0x70, 0xe3, 0x00, 0xe1, 0x00, 0xc0, 0x00, 0xe8, 0xe2, 0x00,
  0xde, 0x00, 0x00, 0x00, 0x00, 0x00, 0xde, 0x00, 0x00, 0x1b, 0x00, 0xe8,
  0x00, 0xc5, 0x22, 0xe3, 0xe1, 0x00, 0x00, 0xe3, 0x00, 0x25, 0xdb, 0x1b,
  0x00, 0xdd, 0x00, 0xe5, 0x21, 0x00, 0x14, 0x1f, 0x00, 0xeb, 0xd9, 0x00,
  0x00, 0x00, 0xd9, 0x00, 0x00, 0x00, 0x21, 0x00, 0x16, 0x18, 0x00, 0xde,
  0xcf, 0xd8, 0x1c, 0x00, 0x00, 0xc8, 0xd0, 0x00, 0xe8, 0x00, 0xe6, 0x00,
  0x00, 0x00, 0x00, 0x00, 0xe9, 0x23, 0xd7, 0xdf, 0x00, 0x00, 0x2a, 0xe9,
  0x00, 0x00, 0x00, 0x16, 0xd4, 0xe0, 0x00, 0x00, 0x00, 0xdf, 0x00, 0x00,
  0x00, 0x00, 0xd7, 0x00, 0x00, 0x00, 0x00, 0x00, 0xe8, 0xcf, 0x00, 0x1e,
  0x00, 0x00, 0x00, 0xe9, 0x00, 0x00, 0x00, 0x00, 0x2c, 0xe9, 0x00, 0x00,
  0xc4, 0x3c, 0x46, 0x2f, 0x43, 0x43, 0x00, 0x00, 0x00, 0x00, 0x00, 0xb4,
  0xa5, 0x4e, 0xce, 0x2b, 0x00, 0x00, 0xda, 0x55, 0xd5, 0xd8, 0x00, 0x00,
  0x47, 0xd3, 0xd5, 0x00, 0x2d, 0x00, 0x00, 0x00, 0x00, 0x00, 0x49, 0xd3,
  0x00, 0xd5, 0x00, 0x30, 0xc7, 0x27, 0x3c, 0x00, 0x00, 0x00, 0x4e, 0x00,
  0x26, 0x2b, 0x00, 0x00, 0x00, 0x00, 0x3a, 0x2d, 0x4c, 0x00, 0xd7, 0x00,
  0x49, 0x47, 0x00, 0x2b, 0x00, 0x00, 0xc6, 0xcf, 0x00, 0xc0, 0x00, 0xd5,
  0xc2, 0x3d, 0x00, 0x29, 0x00, 0x3a, 0x43, 0x00, 0x00, 0x33, 0x46, 0x00,
  0xce, 0x00, 0x00, 0x00, 0xca, 0x00, 0xd1, 0xd8, 0xae, 0x00, 0x42, 0x2e,
  0xd4, 0x00, 0x00, 0xd0, 0x00, 0x00, 0x00, 0x00, 0x36, 0x00, 0x4c, 0x00,
  0x2a, 0x00, 0x00, 0x00, 0x00, 0x00, 0x00, 0xd4, 0x00, 0xce, 0x40, 0x43,
  0xd5, 0x42, 0x00, 0x00, 0x29, 0x00, 0x45, 0x00, 0x4d, 0x2c, 0x26, 0xc0,
  0xaf, 0x00, 0x00, 0x00, 0x00, 0x50, 0x00, 0x26, 0x00, 0x37, 0x00, 0x00,
  0x00, 0x3f, 0x4b, 0x3c, 0xab, 0x5e, 0x41, 0x00, 0xd3, 0x00, 0x00, 0x00,
  0xc5, 0xce, 0xc1, 0xdb, 0x00, 0x00, 0x00, 0x00, 0x00, 0x00, 0x00, 0x00,
  0x37, 0x3b, 0x00, 0x00, 0xcd, 0x25, 0x2e, 0x31, 0xd0, 0x00, 0x38, 0x00,
  0x29, 0x00, 0x32, 0x00, 0xad, 0x00, 0xd7, 0x00, 0x00, 0x4a, 0x00, 0x00,
  0x2a, 0x00, 0x00, 0x00, 0xd3, 0x3e, 0x4b, 0x3e, 0x00, 0x4f, 0x00, 0x00,
  0xd6, 0x38, 0x00, 0xcd, 0x00, 0x00, 0x00, 0x00, 0x00, 0x2d, 0x00, 0x00,
  0x00, 0x00, 0x00, 0xb6, 0xc3, 0x47, 0xd5, 0x00, 0x00, 0x00, 0x43, 0xd6,
  0x00, 0x54, 0x4c, 0x5f, 0x30, 0x43, 0x00, 0xb7, 0x00, 0x4f, 0xd9, 0x47,
  0x51, 0x00, 0x5a, 0x00, 0xdb, 0xa8, 0x35, 0x25, 0x3a, 0x00, 0x25, 0x00,
  0x00, 0x29, 0xd8, 0x00, 0x00, 0x00, 0x2d, 0x00, 0xc4, 0x00, 0xcd, 0x24,
  0x28, 0x68, 0x4f, 0x50, 0x66, 0x46, 0x00, 0x42, 0x00, 0x00, 0x2b, 0x00,
  0x3f, 0x00, 0x3e, 0x3a, 0x00, 0x62, 0x00, 0x55, 0xd5, 0x00, 0x27, 0x00,
  0x00, 0x33, 0x00, 0x29, 0x00, 0x3c, 0x25, 0x47, 0x00, 0xca, 0x3e, 0x00,
  0x00, 0x00, 0x00, 0xda, 0x00, 0x00, 0xd9, 0x00, 0xdc, 0x00, 0x00, 0x51,
  0x00, 0xcf, 0x00, 0x00, 0x00, 0x00, 0x00, 0x00, 0x00, 0x47, 0x35, 0x00,
  0x00, 0x43, 0x4b, 0x00, 0x28, 0x4d, 0x00, 0xca, 0x00, 0x44, 0x00, 0x00,
  0x2d, 0x00, 0x00, 0x00, 0x00, 0xc9, 0x48, 0xdb, 0x44, 0x4c, 0x00, 0x30,
  0x00, 0xdb, 0x00, 0xd9, 0x30, 0x00, 0x48, 0x00, 0x29, 0x00, 0x3c, 0x3e,
  0x00, 0x00, 0x00, 0x39, 0xbb, 0xce, 0x00, 0x3c, 0x00, 0x00, 0x00, 0x00,
  0x2f, 0x00, 0x00, 0x00, 0x32, 0x00, 0x00, 0x00, 0x00, 0xd3, 0x00, 0x00,
  0x00, 0x32, 0x00, 0x00, 0x3e, 0x00, 0x3b, 0x00, 0x00, 0x00, 0x4c, 0xd0,
  0x00, 0x00, 0x00, 0xca, 0x44, 0xd9, 0x2d, 0x00, 0x32, 0x00, 0x43, 0xcd,
  0x51, 0x00, 0xd5, 0x28, 0x00, 0x00, 0x00, 0x00, 0x00, 0x54, 0x4a, 0x36,
  0x00, 0x00, 0x00, 0xd5, 0x00, 0x00, 0x4d, 0x00, 0x59, 0x54, 0xdb, 0x36,
  0x00, 0x3b, 0x2b, 0x3b, 0x2a, 0x00, 0x00, 0x35, 0x00, 0x00, 0xd0, 0x00,
  0x27, 0x24, 0x00, 0x00, 0x3a, 0x81, 0x3b, 0x27, 0x00, 0x00, 0x00, 0x53,
  0x00, 0xd6, 0x00, 0x00, 0x00, 0xd9, 0x00, 0x00, 0xb6, 0x38, 0x47, 0x00,
  0x00, 0x39, 0x00, 0x00, 0x00, 0x00, 0x4a, 0x00, 0x4e, 0x00, 0x46, 0x30,
  0x36, 0x00, 0xcb, 0x00, 0x5d, 0x00, 0x00, 0x3c, 0x00, 0x36, 0xc7, 0x4a,
  0x00, 0x00, 0x00, 0x40, 0x43, 0xce, 0x00, 0x00, 0x39, 0x00, 0x33, 0x00,
  0xcf, 0x00, 0x3e, 0x00, 0xb9, 0xce, 0x00, 0x30, 0x4f, 0x50, 0x00, 0x00,
  0x3d, 0x00, 0x2f, 0x00, 0x00, 0xc4, 0x00, 0x31, 0x00, 0x00, 0x00, 0x00,
  0x00, 0x50, 0x00, 0x00, 0x00, 0x2e, 0xd7, 0x3c, 0xc5, 0x00, 0xda, 0x00,
  0x37, 0xc3, 0x26, 0x00, 0x00, 0x32, 0x00, 0x00, 0xd9, 0x00, 0xc9, 0x00,
  0x00, 0x00, 0x00, 0x00, 0x00, 0x00, 0x37, 0x00, 0x00, 0xa9, 0x32, 0x34,
  0x00, 0x1f, 0x00, 0x00, 0x00, 0x00, 0x31, 0xba, 0x31, 0xe6, 0x00, 0x37,
  0x00, 0x00, 0x00, 0x3b, 0x4b, 0x4f, 0xa8, 0xd2, 0x30, 0x00, 0xcc, 0x00,
  0x00, 0x00, 0x00, 0x00, 0xdf, 0xb3, 0xe4, 0x54, 0xd7, 0x27, 0x00, 0x00,
  0xc5, 0xdc, 0xe2, 0x27, 0xe2, 0x1f, 0x2b, 0x00, 0x3b, 0x00, 0xb3, 0x00,
  0xa5, 0xe2, 0x7f, 0x00, 0x00, 0xcb, 0x26, 0x00, 0x20, 0x34, 0x26, 0x24,
  0x33, 0x00, 0xe6, 0xb8, 0xba, 0x53, 0xe1, 0x1f, 0x00, 0x46, 0xc1, 0x00,
  0x00, 0x00, 0x00, 0x00, 0x00, 0x00, 0x00, 0x00, 0x00, 0x00, 0x25, 0x00,
  0xc8, 0x00, 0x00, 0xd9, 0xbe, 0x00, 0x00, 0x00, 0x00, 0x00, 0x00, 0xe2,
  0xbb, 0x00, 0xd0, 0x22, 0xe3, 0x00, 0x00, 0x00, 0x2a, 0x00, 0x00, 0xe0,
  0xd8, 0xa1, 0xac, 0xd6, 0x96, 0x8c, 0x00, 0x00, 0x00, 0x00, 0x00, 0x00,
  0x00, 0xe1, 0x1f, 0x4d, 0x00, 0x00, 0x00, 0x00, 0xd6, 0x1a, 0x00, 0x00,
  0x1e, 0x00, 0xda, 0x00, 0x00, 0xdf, 0x00, 0x00, 0x26, 0xc4, 0xd8, 0xcf,
  0x27, 0x2d, 0x00, 0xba, 0x4b, 0xcc, 0x00, 0x89, 0x30, 0xc9, 0x5e, 0x00,
  0x00, 0x00, 0x00, 0xd7, 0xd0, 0x2a, 0x00, 0xb5, 0xdf, 0x00, 0x9a, 0x20,
  0x32, 0x00, 0xe4, 0x2d, 0x00, 0x00, 0x37, 0xcb, 0x00, 0xe6, 0xd5, 0x33,
  0x25, 0x1f, 0x00, 0x00, 0x00, 0x28, 0xd5, 0x1b, 0x43, 0x00, 0x00, 0xe0,
  0x82, 0x97, 0xcf, 0x00, 0xd8, 0xdf, 0x1c, 0x27, 0xe3, 0x00, 0x00, 0x00,
  0x1b, 0xdb, 0x31, 0xd1, 0x00, 0x00, 0x00, 0x00, 0x00, 0x34, 0x00, 0x00,
  0x00, 0x00, 0x00, 0xe6, 0xcc, 0x00, 0xcc, 0x00, 0x00, 0x00, 0x00, 0x2b,
  0xcf, 0x00, 0x00, 0x27, 0x00, 0x31, 0x00, 0x00, 0xc4, 0x00, 0x00, 0xc9,
  0x00, 0xc9, 0x00, 0x00, 0x00, 0x24, 0xda, 0xdb, 0x00, 0xcb, 0x23, 0x26,
  0xc3, 0x00, 0xda, 0x00, 0x1f, 0xd5, 0x00, 0xd5, 0x00, 0x00, 0x00, 0x2d,
  0x00, 0x00, 0x00, 0xd7, 0x00, 0x28, 0x1f, 0x3a, 0x1d, 0x00, 0x00, 0x00,
  0x00, 0x00, 0x00, 0x00, 0x00, 0xc2, 0xd5, 0x00, 0xe3, 0x00, 0xdb, 0x00,
  0x35, 0xe2, 0xd3, 0x2b, 0xdf, 0x00, 0x2d, 0x3c, 0x42, 0x00, 0x00, 0x00,
  0x00, 0x00, 0x00, 0x26, 0x26, 0x00, 0x1c, 0x00, 0x00, 0x00, 0x00, 0x67,
  0x00, 0x00, 0x1f, 0x00, 0x1f, 0x00, 0xd7, 0xe6, 0x26, 0x00, 0x1b, 0x39,
  0x00, 0x4d, 0x00, 0x1c, 0x00, 0xe1, 0x32, 0x00, 0x00, 0x00, 0x28, 0xde,
  0xe6, 0xe3, 0x29, 0x31, 0xd1, 0x00, 0x1e, 0xe3, 0xe6, 0x00, 0x00, 0xde,
  0x00, 0x00, 0x00, 0x00, 0x00, 0x20, 0x00, 0x1d, 0x1d, 0x00, 0xe2, 0x1a,
  0x00, 0x00, 0xde, 0x00, 0x28, 0x00, 0xd0, 0x23, 0x00, 0x00, 0x00, 0x00,
  0x1e, 0xd0, 0x20, 0x00, 0x00, 0x34, 0x3d, 0x35, 0x27, 0x44, 0x00, 0x32,
  0x00, 0x00, 0x00, 0x39, 0xe2, 0x2c, 0x00, 0x00, 0x00, 0x21, 0x33, 0x00,
  0x00, 0x3f, 0xd7, 0x00, 0x00, 0x00, 0x00, 0x23, 0x2a, 0x00, 0x00, 0x00,
  0x00, 0x00, 0x00, 0x00, 0x00, 0x00, 0x29, 0x00, 0xda, 0x00, 0xd0, 0xda,
  0x00, 0xdb, 0x20, 0x3a, 0x00, 0x00, 0x00, 0x00, 0x40, 0x00, 0x00, 0x39,
  0x00, 0x00, 0x00, 0x00, 0x2e, 0x00, 0x00, 0x00, 0x00, 0xda, 0xdc, 0xe1,
  0xcc, 0xc2, 0x00, 0xd9, 0xc2, 0x00, 0x00, 0x00, 0x00, 0x1f, 0x47, 0x00,
  0x25, 0x29, 0x00, 0x00, 0x00, 0x21, 0x00, 0xe1, 0x00, 0x22, 0x00, 0x00,
  0x00, 0xe4, 0xe3, 0x34, 0x2c, 0x2d, 0x00, 0x00, 0x44, 0x00, 0x00, 0x39,
  0x49, 0x00, 0x1b, 0x44, 0xcd, 0x5c, 0x00, 0x41, 0x42, 0x4b, 0x00, 0x2e,
  0x00, 0x43, 0x00, 0x23, 0x00, 0xce, 0x00, 0x00, 0x40, 0x00, 0xd3, 0x39,
  0xd7, 0x00, 0x00, 0x29, 0x2f, 0x22, 0x00, 0xbd, 0xb4, 0xe0, 0x00, 0x00,
  0xd2, 0xd5, 0x00, 0x00, 0x00, 0xc7, 0xc6, 0x00, 0x00, 0x00, 0x00, 0x00,
  0x00, 0x00, 0xd5, 0xe5, 0x00, 0xe2, 0x00, 0x00, 0x23, 0x00, 0xdb, 0xdc,
